// Auto-generated code

const unsigned int model_data_size = 17910;

alignas(16) const unsigned char model_data[model_data_size] = {
0x20000000,
0x54464c33,
0x00000000,
0x14002000,
0x1c001800,
0x14001000,
0x0c000000,
0x08000400,
0x14000000,
0x1c000000,
0x84000000,
0xdc000000,
0x74f60000,
0x84f60000,
0xfc160100,
0x03000000,
0x01000000,
0x04000000,
0x9606ffff,
0x0c000000,
0x1c000000,
0x3c000000,
0x0f000000,
0x73657276,
0x696e675f,
0x64656661,
0x756c7400,
0x01000000,
0x04000000,
0x98ffffff,
0x1a000000,
0x04000000,
0x08000000,
0x6f757470,
0x75745f31,
0x00000000,
0x01000000,
0x04000000,
0x4a09ffff,
0x04000000,
0x07000000,
0x696e7075,
0x745f3100,
0x02000000,
0x34000000,
0x04000000,
0xdcffffff,
0x1d000000,
0x04000000,
0x13000000,
0x434f4e56,
0x45525349,
0x4f4e5f4d,
0x45544144,
0x41544100,
0x08000c00,
0x08000400,
0x08000000,
0x1c000000,
0x04000000,
0x13000000,
0x6d696e5f,
0x72756e74,
0x696d655f,
0x76657273,
0x696f6e00,
0x1e000000,
0x94f50000,
0x8cf50000,
0x74f50000,
0x3cf50000,
0xe4f10000,
0x84f00000,
0x14c90000,
0x24c70000,
0x940b0000,
0x440b0000,
0xd4010000,
0xac010000,
0x04010000,
0xfc000000,
0xf4000000,
0xec000000,
0xe4000000,
0xdc000000,
0xd4000000,
0xcc000000,
0xc4000000,
0xbc000000,
0xb4000000,
0xac000000,
0xa4000000,
0x9c000000,
0x94000000,
0x8c000000,
0x6c000000,
0x04000000,
0x360affff,
0x04000000,
0x58000000,
0x0c000000,
0x08000e00,
0x08000400,
0x08000000,
0x10000000,
0x28000000,
0x00000600,
0x08000400,
0x06000000,
0x04000000,
0x01000000,
0xeb030000,
0x00000a00,
0x10000c00,
0x08000400,
0x0a000000,
0x02000000,
0x02000000,
0x04000000,
0x06000000,
0x322e3135,
0x2e300000,
0x9a0affff,
0x04000000,
0x10000000,
0x312e3134,
0x2e300000,
0x00000000,
0x00000000,
0xb8ebfeff,
0xbcebfeff,
0xc0ebfeff,
0xc4ebfeff,
0xc8ebfeff,
0xccebfeff,
0xd0ebfeff,
0xd4ebfeff,
0xd8ebfeff,
0xdcebfeff,
0xe0ebfeff,
0xe4ebfeff,
0xe8ebfeff,
0xecebfeff,
0xf0ebfeff,
0xf20affff,
0x04000000,
0x96000000,
0xafa2c1cd,
0xd5d40f31,
0x1c1de93f,
0x627f60d8,
0x326a452d,
0xb7f73917,
0xf8a6b4ce,
0xacb7e8ed,
0xf9f2f237,
0x4336292b,
0x757f716f,
0x3b512b1d,
0x340a15ff,
0xf4e7f4e6,
0xdd9fc904,
0xf181a8dd,
0x05d79b07,
0xfd20aac3,
0xfb1e4eab,
0xe9fc2b3e,
0xbe26456a,
0x7f0b3f55,
0x6a5a0417,
0x37fd1abb,
0xb79c96b6,
0xa9c3c9d0,
0xd2e52631,
0x17372374,
0x7f5f5c16,
0x2f30262e,
0xedff09fb,
0xd7b8f918,
0x2d3d081f,
0x7f634de4,
0x3c544823,
0xf0013d2b,
0x05bed6b1,
0xa7880000,
0x960bffff,
0x04000000,
0x18000000,
0x7fb9ffff,
0x70dcffff,
0x4e280000,
0x1e68ffff,
0xf8b5ffff,
0xedaeffff,
0xba0bffff,
0x04000000,
0x60090000,
0xa9f392b8,
0xa3a59801,
0xaf959107,
0x99a6b5d3,
0xb3b3bb03,
0xf3deefb9,
0xd99d8fad,
0xcde60ba4,
0x9cbca591,
0xcbaad3a5,
0x13b498ca,
0xcbedc3aa,
0xbcfcebf9,
0x92d5dec5,
0xb4d88fd0,
0xcf14abff,
0xf3f8bdce,
0xb2bfa1a6,
0xe1a98de6,
0x14b0d38f,
0xf8d9d1be,
0xaeb781ea,
0x90ccf890,
0xd9bf03b8,
0xe6b7b7f3,
0x13a0f9cf,
0xc1f0d9b4,
0xe8da8114,
0xd5b3b5ca,
0x9eb3e201,
0xfab5ebcc,
0xe89fb0d0,
0xe1a1dffe,
0xc19e90ce,
0xfcbb1dd7,
0x93c1e415,
0xdca7b505,
0xcfab09fb,
0x2e19f629,
0x4deffc5d,
0x484550f8,
0xc5364d37,
0x5723da3a,
0x585c6742,
0xda39694b,
0xf4d11e05,
0xec04f495,
0x4019c01b,
0xfa873f36,
0xe9190bb7,
0x0858ea4b,
0x28f70469,
0x2e5ba1b3,
0x2dddc8db,
0x8e9d59bd,
0x83a38192,
0x5cd0ab9d,
0xcb926ceb,
0xaddb0ad9,
0x2a0c0916,
0xccfe1ace,
0xdbb9acc6,
0x4a8ca1a4,
0xc5e965b8,
0xb68af5ee,
0x76d2fbd7,
0xbdd664e7,
0x01e6e438,
0x200f15ed,
0x094c43de,
0x09e02d46,
0x35df1ce8,
0xf6371303,
0x09f0f1fe,
0x39ff05e0,
0xb7db0484,
0xed8aae08,
0xbccd15b9,
0xdfd5aa9a,
0xcea90591,
0x85a6e3c1,
0xb3dfaa15,
0x84dac6a7,
0x9c12c981,
0xe9a682cf,
0xe2aead8a,
0x96c51bdf,
0xd4f99800,
0x0ddc93c8,
0xe795c59b,
0x898986b8,
0x9f88ef82,
0xb2a98be0,
0x9db9d089,
0xbbb8a291,
0xcceac5f2,
0x068df217,
0xf7a8e2da,
0x951597e2,
0xb41783ad,
0x9797f290,
0xc3e2849c,
0xa60585cb,
0xeeaae7bb,
0xe60c02d0,
0xb9a59da1,
0xc0d78de0,
0xf4feedf3,
0xc8a3ddb1,
0x86e217b3,
0xb3e982c2,
0xc786b3ef,
0xdbb81a18,
0xf23a4027,
0xf909ee20,
0x281aced6,
0xeb0aef1d,
0xc0d2f300,
0xec0da5c4,
0x0dc5c0da,
0xb6e726fc,
0xedf49cad,
0x43b3c8e6,
0x90b261b2,
0xc3a4aeb8,
0x5bb7cbb4,
0xa7e46c9d,
0xc5afd20f,
0x41cce1d2,
0xd509559a,
0xd090c40f,
0x57b6d59a,
0xd62557c5,
0x02c3d309,
0x54c4f0c5,
0x305421e6,
0x3ee62f7f,
0x18ff3dfe,
0x337e002b,
0x3b041667,
0xf7234511,
0xfa1df9e6,
0xfbd84642,
0xd5725d3d,
0x535dcc68,
0x77633a50,
0xbd576162,
0x113fbe26,
0x36410a12,
0xd1ea1c0c,
0x0e28f332,
0x3336ec1a,
0x0c250212,
0xcdd527fb,
0xf011f6bc,
0x36300706,
0x311c2227,
0x1b2ae70b,
0x0c1f1c14,
0xb8ce17d2,
0xe4e29cb1,
0x48c6a5b8,
0xe3b157e8,
0xc8c016df,
0x1c31082d,
0xc30f18e6,
0xdcde9ecd,
0x54d5b1c6,
0x9dd569c6,
0xad8102c3,
0x6fead5dd,
0x27051d2b,
0x0bf2dc08,
0x32f4f2ce,
0xe2fa42d2,
0xdda1efed,
0x36cdf0b6,
0x1e194d11,
0x1dd8fc07,
0x1927090b,
0x0416121d,
0x1a09083f,
0xf1fa3c09,
0x0b44f202,
0x34f51a3b,
0x122b1234,
0x0e02fc21,
0x3009e69d,
0x88f108a1,
0x07efdf12,
0x9bb8a5ec,
0x86a5a41a,
0x92d49efe,
0xb9f19bb5,
0x8cc5f39d,
0xb8d4f4ae,
0xacd3f2d3,
0x93d7b002,
0xd9a781cd,
0xa5c9d6d4,
0xedaa8da0,
0xedd0c3b6,
0x09fea10a,
0xb504c30e,
0xc9c5d00b,
0x05b01395,
0xd51512b8,
0xa2a088e7,
0xd2dbeac2,
0xe8b8e292,
0xdaeceb93,
0xb6101ab9,
0x0cacbffc,
0xebbfc71b,
0x96faa690,
0xfaa2d198,
0xf7fba3d2,
0xdaa6b6b9,
0xa1d9df01,
0x08d5d6ca,
0xa399eaa6,
0xbb9eb70b,
0x8fe394d1,
0xd49deeeb,
0xecc214d9,
0xbcb2e9ee,
0xfb8fc6b4,
0xebb3a0ec,
0xd5b286ed,
0x13e8fc98,
0xd4c5f80a,
0xfccb8c0b,
0xe1a295fb,
0xb1c3fe03,
0xc4e2b4ce,
0x95b3b4cd,
0xbfa0c4b3,
0xb0f28abd,
0x04d3099e,
0xd0acabae,
0xc3cb86fb,
0xcff49999,
0xc7b196eb,
0x11fff2d0,
0xecee1302,
0xf7f907f5,
0xb2948ca6,
0xb000e2ea,
0x8899a4f6,
0xd2bacbbb,
0xf1a4cdbc,
0xd3d808a9,
0xfaf9b995,
0xa71598c1,
0x81c5b119,
0x9cc0f714,
0xc319e1c6,
0xb097afc9,
0x0ac6ebda,
0x041401f6,
0x92cecc9e,
0xd799a7ee,
0xc2e801f1,
0x01abe505,
0xfec9e10f,
0x95f10b9b,
0x8f97b404,
0xd2a6c801,
0xfee89fcf,
0xedaad3bd,
0x0fecf0ad,
0xece9f7d5,
0xa0e8c9fc,
0xf71181d6,
0xf295faec,
0xe207fef4,
0xdbd19deb,
0xd7d1c0e6,
0x04a8adbc,
0xf5f9c6ac,
0xe29dd107,
0xd3f99cd4,
0xae0fd0ba,
0xeeabcde8,
0x8399d3c7,
0x06c7e3c8,
0xd4cbb79a,
0x9ef00ad4,
0xe4f1a8ed,
0xeeada7a2,
0xc010e1bc,
0x06919ffd,
0x97ccf8ea,
0x8e03a6fe,
0xb912e19f,
0xf7b8b207,
0xeebaa4ff,
0xa8e8ec9e,
0xda0c9ab4,
0xbdf9d0d5,
0xb7fda49e,
0xe711b19f,
0xdd0e9afa,
0x9f9f02b4,
0xf692c5fe,
0x9a05cbac,
0xa4fdeec2,
0x011098a0,
0xc8f6d8b6,
0x8efed793,
0xf7a3afd5,
0xb8a394fe,
0xc388eed9,
0xe48eb4d7,
0xe902d8ef,
0x181ef1c5,
0x03eac609,
0x81e0cd03,
0xea0bd2a6,
0xb4d8fba0,
0xb2a4fba8,
0xdfb0bacc,
0xa9e1edd7,
0x86d82914,
0x06f8a7d8,
0xed1fd2b3,
0xfb030107,
0xede6f099,
0xa3bc110b,
0xeea0dd9d,
0xc422b4c1,
0x1af9c1f2,
0xe5bcf9d1,
0xd3b2cb9f,
0xbfffb30c,
0xfdeee9a2,
0xc7f8b4ab,
0xafa30612,
0x09362f24,
0xf7eb021d,
0xf834efa7,
0x0ffbf5ff,
0x0eb9260d,
0xe6123ff4,
0x15382c1b,
0xb9d104fd,
0xede2bea9,
0x2cc4b2c4,
0x9e812eb2,
0x91bfe7b5,
0x4602bae6,
0x381a1026,
0x1c35e1fa,
0x0ec2f1d8,
0xb0af3ba9,
0xceadd2ba,
0x5ca3d291,
0x0a084306,
0x09c63633,
0x06491534,
0xe412f90a,
0x01d2eaf8,
0x2bd707c5,
0xf4000b09,
0xffd02d3b,
0x162f3114,
0x200cf729,
0x2e260c24,
0xef042603,
0x2529e430,
0x1a172343,
0xe1322a3b,
0x251ae13b,
0x2d33f9f5,
0xe11c1a1a,
0xacc689de,
0xa28dd786,
0xfec4ab9f,
0x8ec29aab,
0x0bdbc9c8,
0xf8cec7d9,
0xb1b6bea6,
0xdb07cbcd,
0x07de9fc2,
0xeadc81cb,
0x01bfb6c8,
0x83d2a69e,
0x06bcc0b6,
0x96f8fa8c,
0xa2f9ccc7,
0xfeaae6b5,
0xbda40512,
0xc21303b8,
0xd90f93c6,
0xd1de02c9,
0xa0f1f3b3,
0xc6ebe9ec,
0xdca0ddd3,
0xa406fee7,
0xade5aad2,
0x9999169f,
0xb00ff8bc,
0xc5c586f6,
0xcbafde0e,
0xe204a110,
0xb3a3d0b9,
0xf0e8b515,
0xaa16000b,
0xc399c908,
0x070af1df,
0xae17a1b0,
0xeca7cc14,
0x07a3b1be,
0xb9a7fd0d,
0xb4f381ff,
0xc2a1a311,
0x97a7a2c0,
0xa01df6b6,
0xa705b11c,
0x9ee1b1ba,
0xcedea0a2,
0xacd3b490,
0x8bc4d7af,
0x1dd9841a,
0xaff6ecf3,
0x869be118,
0x1517c616,
0x05ea1c04,
0xdffaf8e1,
0xb50b87cd,
0xc7febdeb,
0x89d715e4,
0xf5d0aab6,
0xc7e5ddfe,
0x9b0c8ff2,
0x1c8ea301,
0xa2cacb92,
0x87bac8f8,
0x97999997,
0xabe9adc6,
0x9b97e8e0,
0xfff4b1d4,
0xef9da8a3,
0xb1e88d04,
0xb20bfcd5,
0xa3a70fa5,
0xeabfcc9d,
0xc99ff9b0,
0xef03bb8f,
0xb9c9bfe8,
0xfecbd7b3,
0x86dba9b3,
0xbae6fece,
0x0cdff1aa,
0x039da0dd,
0xd0a2e5dc,
0xefd79ffe,
0xc0ee8ee2,
0xd5f597fe,
0xa0ad92dd,
0xa1f1f48c,
0xfeb9fbe2,
0xf790fb11,
0xede8e4ee,
0x81f2cfdd,
0xd2860795,
0xafbaffc5,
0xccc9888f,
0xa091b0ba,
0xe30efebc,
0xc5c3fcdd,
0xc1e7e393,
0x100091b5,
0xbcfae2d5,
0x8de1df0a,
0x8debc5cc,
0xd5ac8abe,
0xefe0019a,
0xf9c4fce2,
0xb41b95d1,
0xe2d6eac0,
0xedace0b8,
0xd2e2bef0,
0x0cc987b0,
0x96b1d006,
0x88048fd9,
0x01be91d8,
0xa0f3dd0d,
0xc6f6e117,
0x1fc88dce,
0xc50dd3f8,
0x84e005f6,
0xe9c981d7,
0xddb6d105,
0xf6b5a9cb,
0xeb9ec002,
0xff06edd4,
0xcecc11e9,
0xd5b7e4dc,
0xef0c1207,
0x9aeed8af,
0xcb0cd3ae,
0xc0db13b0,
0xd907bcf0,
0x10d4fdf4,
0xb9d3e900,
0xecff0a00,
0xbee2b2a2,
0xdff3989b,
0xd8d2eeae,
0xc2eea2cb,
0xa008e2b6,
0xb6eb9fcb,
0x0e0ce7f0,
0xa7a8a5d7,
0xcbc7c2eb,
0xe7b5ddd6,
0xc3a910b2,
0xb8fed20a,
0xfea2e0c1,
0xa8ecb102,
0xa2d0b4a8,
0xd6c7abb1,
0xc0fae5fd,
0xf6da05ed,
0x1185b58f,
0xacbba6d7,
0x811597d4,
0xc18defb2,
0xc89ccb9d,
0xa2b9b3f6,
0x1c0187dd,
0xe518d4e0,
0x0302e78d,
0xc3eeecd9,
0xa8f9f5ed,
0xfdeca7d7,
0xbd019a0a,
0x97c3f1f8,
0x9af39c9f,
0xd30aceb5,
0x06b403e6,
0xede4e499,
0xf8cdeeed,
0xb3bda3a3,
0xa09e9fa9,
0x10a1e28e,
0xe00efbb8,
0xaef4a995,
0xadc7eef6,
0x87b606ae,
0xc4c3b1cc,
0x07e4eadf,
0xb6f0990d,
0xa8e6f301,
0xa2fc83fb,
0x0fbcaaef,
0x05c2a7f5,
0xd2aed2fb,
0xacb5a1e6,
0x9ddfc00e,
0xc0c7cf8c,
0xba9896bb,
0xb7afd494,
0xa1f0e811,
0xb4a801bf,
0x88e4c8e2,
0x08e990b3,
0xc409e2f9,
0x01abb3f0,
0x9d90ce96,
0xd0c9f0f1,
0xdedc9f9b,
0xa7f4e1f5,
0xc310f5b3,
0xb0c4110e,
0x9d05b1b4,
0x93f9e69a,
0xeae71106,
0xa1df8ed7,
0xc2a2b1fc,
0x8118b0c3,
0xe21000bf,
0xc411f4d6,
0xa095a8c5,
0xdaeec1f3,
0xdddde503,
0xa609c910,
0xc897cde5,
0xd4e899eb,
0xe6d9f1f7,
0xfdea98b0,
0xdcc99ff5,
0xfe00d4b7,
0xdb069bd3,
0x13ade2c8,
0xb918f498,
0xf1fdc3b7,
0x070cd197,
0x8ab0d1e8,
0x2615ffff,
0x04000000,
0x40000000,
0xa1cfffff,
0x4e0e0000,
0x57c5ffff,
0x7ffeffff,
0x96090000,
0xb4cdffff,
0xebcbffff,
0x9fc8ffff,
0xcad0ffff,
0xd5030000,
0x17c9ffff,
0x7ccaffff,
0x59c9ffff,
0xdbcfffff,
0xcdc7ffff,
0xe8cbffff,
0x7215ffff,
0x04000000,
0x80bb0000,
0x30e0fe2b,
0x1c2c2614,
0xfd480016,
0x02001104,
0xfee5fc16,
0xbe011613,
0x29e22ffb,
0x190f2cfe,
0x0cedf9e7,
0xfb083027,
0x1de213fa,
0x0e1f2e24,
0xf71a1ba9,
0xd8170b12,
0xfd091303,
0x0c2609fb,
0xfec42df2,
0xf9072b12,
0xf3052c0b,
0x221e1c28,
0x2b0b0aec,
0xea2806fb,
0x17ef1a0e,
0x16280e02,
0x27a923d7,
0x91140b29,
0x04dc0d22,
0x06200302,
0x19f925d7,
0xcf170cfd,
0x09e92e12,
0x192c0402,
0x29481bcc,
0xdb152505,
0x0a2d1a2b,
0xfd17ff22,
0xff9c20b1,
0x932bf82a,
0x0181022e,
0x060c1421,
0x100817d6,
0xd1fa1620,
0x231e1e07,
0x0404fd2e,
0x2cca1a0d,
0xb4050721,
0x07b2050f,
0xf603fc28,
0x21f70025,
0x1925260d,
0x0bfd1601,
0x25172924,
0x082f13f2,
0xd4171b2d,
0xf50f072c,
0x221b0428,
0x30d720d0,
0x93fb0903,
0x248703f9,
0x111419fe,
0x17e8fbbd,
0xe2fe1a03,
0xf9151d24,
0xfb1f00f5,
0x1cb52f27,
0xaf19fb01,
0x2f962d1c,
0x271d1224,
0x1ae71252,
0x420c281a,
0x27212c1c,
0x090521f9,
0x01c00bea,
0x922a050a,
0x27a52106,
0x22182a02,
0x1bf71516,
0xcbfc2623,
0xf7b8292e,
0x16260608,
0x2c320f9e,
0x131f2dfd,
0x00162403,
0x2afb0624,
0xf6090c27,
0xe90e190d,
0xfbcc2f02,
0x07f6142e,
0x16a33035,
0xa90d2a06,
0x30d7241c,
0x04201325,
0x27152100,
0xdc03f926,
0x26c32d24,
0x05f50429,
0x1e001310,
0x13f7fcf6,
0x24180a05,
0x2613fbfe,
0xf9fcfb0a,
0x04010bfe,
0x0dfded05,
0x01fffff9,
0x080cef50,
0x0f06f1f4,
0x02f8f107,
0x02faf005,
0xf542033c,
0x44f0effa,
0xf30cf7f7,
0x04f00af7,
0xf755f1c1,
0x45f9f4fb,
0x012fed01,
0xf2effaf6,
0xedd50981,
0xe6feedf7,
0xe9f3fef0,
0xebfd0802,
0xf9290512,
0x0901f203,
0xed08f5ff,
0x0106f7ec,
0x01dbea42,
0xf0fc02f7,
0x0aeb0aed,
0xfc0303f1,
0x07aefd5f,
0x25f202eb,
0xfb04fdf2,
0xf8f1f907,
0x0458000c,
0x5f0bfb03,
0xf859f5f5,
0xfbed01f0,
0xf95efbb9,
0x1301fb06,
0xf129ffef,
0xed03eeff,
0xfb1a07fb,
0xf3ee09fe,
0xf70e02fc,
0xfffcecec,
0xf010f4ca,
0x06f307f1,
0xf8e507fc,
0x0308edf5,
0xf4e604f4,
0xdaf6010a,
0xecccfb0a,
0x04f0f7ed,
0x0b08fb10,
0x28f4faed,
0xfc15fcf5,
0x07eef2f4,
0xf71f020e,
0x07f803f9,
0xf206eefe,
0xec01fa08,
0x0516feeb,
0x03f5eef1,
0xed01fd0b,
0x06050506,
0x00fd010a,
0x090afd08,
0xfc180805,
0xeaffecef,
0xf0fdfe28,
0x04f6eefc,
0xf222efff,
0xf2f801f0,
0x0816f400,
0xffed09ec,
0xfa06faf8,
0xee08f007,
0x0b0109f7,
0xf9f900fb,
0xedecf5ff,
0xfff904fc,
0xed110afb,
0x2208f7fd,
0xfc15fb07,
0xf207ebf7,
0xf808fad2,
0xf6fcebf5,
0xfcfdf50a,
0xf805fcfc,
0xfefaf4c9,
0xea04ee05,
0x07d20bf4,
0xf1f6f5f4,
0xeff7f4fb,
0xfd07fefe,
0xf9f5f7f7,
0xfbf301fa,
0x0917f600,
0x2f00fcfc,
0x072a01fb,
0x05f0f5ee,
0xf0f3f1ec,
0xf5fafd0e,
0xfde9fb0d,
0xf6090202,
0x09f303f4,
0xf0050701,
0x0ee6fef1,
0xe7fc0107,
0xf413e92f,
0x3ee8f6fb,
0x0a1c0209,
0xee06e8f7,
0xe7360048,
0x62eafa0b,
0x0d44e9f3,
0xfde7f408,
0xe71a0535,
0x0ef4fa02,
0xefee07ee,
0x0409fdf9,
0x07ede4f7,
0xeceb04fd,
0xeed8faef,
0xf30bef02,
0xf9f1fafe,
0x0b0bf6fa,
0x02d8ffe8,
0xedecf401,
0xfa0bee03,
0x3befec0f,
0x0a26e8fc,
0xfffc0408,
0xfba2e838,
0xe8f7f705,
0xea0104fd,
0xe4eb01ed,
0xf906fb44,
0x40ed060d,
0x092ce9f3,
0xfbf30303,
0x0be2ea15,
0xfd0b0b04,
0xeef8f70e,
0xf2e900f7,
0xee0cec2f,
0x5b060600,
0xf231ebeb,
0x06f20d04,
0xe6610932,
0x5afe0a06,
0xea65feff,
0xfbf8f7fe,
0x01dcf3f6,
0xf40f0402,
0x00c20904,
0xe6f9fc09,
0xf3f0ed05,
0x39f3f003,
0xf728f7e6,
0x10f7ff0c,
0x0a25eee6,
0x00050bf4,
0xf1ef05f7,
0xf709ffef,
0xec02f6c7,
0x42e9e90a,
0xef33080b,
0xf101fe0e,
0xf0b2e9ba,
0x89fb0009,
0x01b3effb,
0xfb060d04,
0x02090ae6,
0x3307e50b,
0xfd23f0f0,
0xfa06fb0b,
0xf2f4f4ed,
0x2b07e901,
0x0d220af5,
0xffe6eaec,
0xfe1f0c3d,
0x4904ee02,
0x1014edf3,
0x0709ff03,
0x097ff2ad,
0x6000ec00,
0xf14007f3,
0x02f5fb09,
0x0435f6ae,
0x2cedf8ef,
0x03fee70d,
0xeaf50805,
0x03c3f7ef,
0xfdfcf104,
0x08eef9e4,
0xfdf90604,
0x0dd407e1,
0xd6effaf8,
0xf8be08e4,
0x06e5ed0b,
0xff040503,
0x020f0efd,
0xf4f6f2f5,
0x02f405f6,
0xff13fde8,
0x08fcfe03,
0x0dfffb0b,
0x09fb0304,
0x0e3afdea,
0xff0c05f3,
0x03e5f1ff,
0x0e00f404,
0xf656fabf,
0x2ff7f700,
0xf609fcf9,
0xfc10f7f2,
0x0d4c02c2,
0x36060207,
0x0d45f708,
0x090a030f,
0x0101feec,
0x110b06fa,
0x05ee0f0c,
0xf4f50b0b,
0xfa1bf8fb,
0x42060006,
0x0432faee,
0x0ff10704,
0xf30208f5,
0xfc00f607,
0x04f5f701,
0x0602f6f1,
0xef1f03c9,
0x4cfdf60c,
0x0f29f80f,
0x0b09080d,
0xf73b01cd,
0x44f5010f,
0xfe5afaff,
0xef0cfcf5,
0xf1000b0d,
0x240cef01,
0x0305fef6,
0x07f2ef0c,
0x0527efef,
0x46f6fa03,
0x0f25f204,
0xfdf3f3f6,
0xf43ef2f7,
0xda02f4f6,
0x10d2f8f4,
0xfd0efc01,
0x0c4ef01a,
0x75f6ff0c,
0x02460afd,
0x0e040efb,
0x040f030f,
0x03faf808,
0x05110c0d,
0xf4ff01ff,
0xfee200ee,
0xe0f2eef1,
0x02f0f8fa,
0x0400f0ef,
0x0bdc012e,
0x00f0ef09,
0xfb04f90e,
0xed05f1f9,
0xeed8047f,
0x2af80dfa,
0x024308fa,
0x0a0a020d,
0xf1d30e19,
0x02faf1f1,
0x0535fef7,
0x0801f50b,
0x00e8fee2,
0xb20c030e,
0x01e3f2f3,
0xedf8fa0d,
0xeef8fdcf,
0xd9fefc0c,
0x04d706ef,
0x0b0cf308,
0x0cf9fffd,
0xc7f6f904,
0xfcc2f6fd,
0x030cf70d,
0xfb12f316,
0xf2f00eff,
0x0bd8020c,
0xfd06fb09,
0x0d09f1ca,
0xf8eefa04,
0xeff4f302,
0xee0301fd,
0x0703f8d1,
0xfaef0bf0,
0xeddeff0e,
0x0d0605fc,
0x0502fa06,
0xfc0e1012,
0x000ff7fd,
0x0c0f0801,
0xfb000f03,
0xfdf700fe,
0x0af8fb03,
0xf2f80af5,
0xfc04fe18,
0x01fe0905,
0x09090bfd,
0x1306f813,
0xf31a0611,
0x27fef6fe,
0x010df810,
0xfcfe03f4,
0xf706fbed,
0x12f40ff7,
0x01f50e09,
0xfb0ef6f8,
0xf8ee03e8,
0x090af107,
0x14e90f06,
0xfbf90ef1,
0x0ed4fb0e,
0x0000f1ff,
0xf80bf60d,
0x0803f3fa,
0xf4d0fe73,
0x0f12f701,
0x0922fff2,
0xfcf1f10a,
0x02be046d,
0x09f9fcf5,
0x0822f7f9,
0x03030210,
0x0c3bf5f4,
0x33f707ff,
0x0f3afb0a,
0x11faf90b,
0x130c0eec,
0x0d0dff13,
0xfc0bf40e,
0x0cff0afc,
0xf637f7e9,
0x2ffc0104,
0x023d0009,
0x02fe0908,
0x0cb30bdc,
0xc5fb0d0b,
0x09d90f02,
0xf7faff08,
0xfb9bf9d1,
0xae04100d,
0xfab0f409,
0x0c02f310,
0xfbf91310,
0x180e00f6,
0xfa0ef911,
0x14011303,
0xf2200f38,
0x30fcf911,
0x0d0cf1f9,
0x00f7f70e,
0xf62f02ae,
0x14f8f909,
0x0035f309,
0x0e0d0c11,
0xf1091299,
0x81f3f901,
0x03b0fdf2,
0xf9fbf40e,
0x03fff202,
0x140ef1f9,
0xf2fa0903,
0x0afbf910,
0x0d01f909,
0x12f2f3fc,
0x11fef813,
0xf70e0904,
0xf318f718,
0x0c0b0100,
0x0501f511,
0xf214fbf8,
0xf52908c2,
0x20110604,
0xf60c08fe,
0x0803fd06,
0x100b13dd,
0xf51008f4,
0xfefdf102,
0x04f40cf9,
0x10e6ff0d,
0x10f5f701,
0x01f004f5,
0xfe05010b,
0x13fff403,
0x25fdf107,
0x0110f8fa,
0xff10f109,
0x0a08e5ef,
0xfde6ecf5,
0x06010ae7,
0xfefef6fd,
0x02f2f014,
0xf9ea04f3,
0xf509e9fe,
0x03fbfb04,
0xeb400313,
0x0e0409f9,
0xea1703e5,
0xfcf8020b,
0xec4f08da,
0x3001e6f2,
0xe82a090d,
0xfdf80bff,
0xf03306ce,
0x16f10beb,
0xf538e7f0,
0xf4fceafb,
0xede7fcc2,
0xef0df1f6,
0x0cf3fc0c,
0x000df6e6,
0xf40ef7a1,
0x25f30000,
0xea05ecfc,
0xea090b0d,
0x0301facf,
0xe3f60207,
0xe7cfed05,
0xe7f1ed06,
0xee0cfeb3,
0x2becf6e8,
0x0914f9ec,
0x04040cf2,
0xef26eeac,
0x0ffbf3ee,
0xf635fa08,
0x09f903f4,
0x012aeae4,
0x0302fefe,
0x0bf8f0ff,
0xf0fff807,
0xfe47eefe,
0x7f00ecfe,
0xe93ffcf4,
0x0508f4f5,
0xe467e90d,
0x1cf50b00,
0x05fa0a09,
0x02ff0503,
0xf357f10d,
0x510600f2,
0x07240402,
0xf4f3edfc,
0x0930f8e1,
0x18e702f5,
0xed40e7f0,
0xf803ef01,
0xf6f2ed34,
0x25f6ee0c,
0xf713f305,
0xfef4feeb,
0xfff1f92e,
0x37060bfa,
0x032ce7e5,
0xebfbfbeb,
0xf8e2f643,
0xfae60b08,
0xf7f40af6,
0xe4eaffea,
0x02430340,
0x6a060d04,
0xf55f09f8,
0x00f202f5,
0xe515e5ee,
0x1f07eb0a,
0xfd2cee06,
0xf2e50bef,
0xe90bf10a,
0xfa05f20a,
0xf90308e7,
0x08f9eae6,
0x09f8e5ad,
0xfbf3e6eb,
0xfcf10afa,
0x0b0c0cf6,
0x08d50a2a,
0xf3e5fbf0,
0xe8dff1e8,
0x0cf9e6f3,
0xfcec0c34,
0x2ce904fb,
0x0f1b06f1,
0xf30706ec,
0xf3f4f8de,
0x120701f3,
0xe516fff8,
0x00e9fff4,
0x121a0ddc,
0xf4ef0ff2,
0xf6fef108,
0x11020bf2,
0x11fe0bc6,
0xe009fdf4,
0x0dea0714,
0xff0b0f01,
0x0e1b0ab2,
0xe1ea1010,
0xf4ccec06,
0x0a030705,
0x0c0600e7,
0xecf0efef,
0xf6d601f0,
0x07ebf2e9,
0xeb000aef,
0x0908080d,
0xfd050413,
0x0d130503,
0xeb2bfae3,
0xfef3f5e9,
0xfdedf70a,
0x0513f3f6,
0xee45f00e,
0x2b13ee07,
0x002a03ea,
0xfb0b12eb,
0x006102f5,
0x47efe9f2,
0xf73fff14,
0xf6090e09,
0x0823fad3,
0x28f0f5fc,
0x0914f8fc,
0xf7ebf2fa,
0xeaf5f7f3,
0xfcfa03ec,
0x12f9fcf8,
0x02080b02,
0xfe06e91d,
0x30f7ebf8,
0x123f12eb,
0x04ebfdf2,
0xf402fc28,
0x45f106f4,
0x063ff4f3,
0x09f70e07,
0xf2fbf251,
0xfa080002,
0x0b2feff3,
0x0ff00efc,
0x025d0b2c,
0x5706f4fa,
0xf024f714,
0x050afd06,
0x0d2e13fc,
0x0306f60f,
0xf328f2f3,
0xf0f604f8,
0xe9ed0453,
0xfaf8fd06,
0x0608eb00,
0x04100907,
0xf5d4ea1d,
0xdb03e9ee,
0x1403feff,
0x07fff312,
0x0cdbf143,
0xd9010ceb,
0x09da1404,
0xed00ec10,
0x14e2f026,
0x30f3f2f1,
0xfe30f512,
0xfff902f9,
0xfbeb07c5,
0xb203f00b,
0xfeeef904,
0x0709fa0d,
0x11ceefcb,
0xbc06fdf6,
0xf5dfedff,
0x0df0f4f8,
0xf5cdf1c8,
0x8710eaf7,
0x05a4ed03,
0x020aff0e,
0x01f6f6e2,
0xe5ed1105,
0xfdb4ff0a,
0xf1f504ee,
0x09f3e89f,
0xd0f5f10c,
0xf8def0f3,
0xf8faef13,
0x11d3f881,
0xc5eef10e,
0x0aaef9ee,
0x12fbf305,
0x0cfc0a16,
0x060c0022,
0xfe221707,
0x0e200303,
0x0cdc22c8,
0xd60efdfd,
0xfb041a18,
0x16fa0701,
0x05c31ada,
0xc6051003,
0xffd01efb,
0xfe0f0a14,
0xfefb1202,
0xa9242a26,
0x14f3fc20,
0x07240113,
0x021a2a42,
0x120804f9,
0x131f2914,
0x0c131705,
0x13e30cd7,
0xf202160c,
0x0bfffdfe,
0xfafb0c15,
0x1fea08b9,
0xbc011505,
0x1cd92124,
0x21131924,
0x1e0d03c6,
0x980b1522,
0x28d82402,
0x26fc1d15,
0x140e1fc9,
0xb5011b11,
0x00da2801,
0x10261415,
0x0eb21917,
0xbc20280a,
0x15d62114,
0x14fa0215,
0x230cfe0b,
0x041d2625,
0x011c25fc,
0x040c17fc,
0x03ea1931,
0xb9250e09,
0x00ce1819,
0xfd110a23,
0x2a0ffcf6,
0x1dff1efe,
0x22fd2614,
0x05fa0afc,
0x26261f08,
0xdb07220e,
0x003c1f07,
0x131c27fa,
0x20e41eef,
0x97160128,
0x0aab1404,
0x0b001f1f,
0x03fc04d9,
0x001f1afe,
0x040a0e0f,
0x0a000214,
0x17d90a28,
0x87091806,
0x28cc2a0b,
0xff18f90c,
0x29f90b3c,
0x55131111,
0x222a172a,
0xfef91d21,
0x27d1151d,
0x8e030513,
0x04e6221c,
0x02070b15,
0x11dd1cf7,
0xa0f91c1d,
0x1cbf1f14,
0x01222204,
0x0b05ffc1,
0xcc041a07,
0x190d0d0d,
0x1cff221f,
0xfbcf2236,
0xb60f0e13,
0x0dd608fd,
0x12fa2719,
0x05ad072f,
0xa3092524,
0x28de162a,
0x1f1a2906,
0x11fa19c9,
0x81292411,
0x10ad1329,
0x0d14fd19,
0x21f21f05,
0xe0fc0df9,
0xfbfefd16,
0xf8081b03,
0x0c21ef03,
0xfffd0a01,
0x0014fe02,
0x14fc1400,
0x090e1618,
0x1af5fb14,
0x1110ecf6,
0x040e05ea,
0x062802ca,
0xdb0ff4fb,
0x09c00afb,
0xf5ecf507,
0x0f23139c,
0x01ee0407,
0x12d104f2,
0x010e14fc,
0xee110a97,
0x2ffff5f9,
0xef3609f5,
0xedf101fa,
0xf60ffa17,
0x33ecfcee,
0x131c0ef0,
0xeff515f2,
0xf208f02a,
0x2feb01ee,
0xed12f40b,
0xfb1402f3,
0xf90c0126,
0x22f815f7,
0xedea0df7,
0xf8fcebed,
0xff7f0002,
0x6dfcfe16,
0xef3df802,
0xfe05f7ee,
0xfc570fc3,
0x3d02ec0c,
0x0e45eef2,
0x00eef7f8,
0x0f14ed1b,
0x22eb100e,
0x092b1300,
0x0bfbfff8,
0x06f503c0,
0xde00fdf8,
0xf5fb0af5,
0xfcf8fb09,
0xe9c7f701,
0x86010105,
0xf9a1f1f9,
0x130f07f8,
0xfb28f153,
0x4deb0513,
0xf739fc11,
0xfb10f3fd,
0xec32ed3f,
0x21fc02ea,
0x0d430bec,
0x06ef0a11,
0x02a91010,
0xea080e09,
0x0afffc14,
0xfeeb0c02,
0xf3fcfe02,
0xd304ff04,
0x0af5f3f9,
0xf20f1205,
0x0b03fc25,
0xed0a0df0,
0xee140f09,
0x06fdedfb,
0x0eca101f,
0xf801f90c,
0x0116ed07,
0xf40509eb,
0x15c5061a,
0xd5fd10fe,
0x030800ed,
0xf3e80208,
0xfaff11ca,
0xaced16e9,
0x07b2f204,
0xf1f0010a,
0x0ce60634,
0xf2131202,
0xf0bb1402,
0xf3f9ec01,
0xf95aec41,
0x5e0c0af1,
0xfc4d100a,
0xfbfaf4f9,
0xfe2df8b7,
0x0f0001ec,
0xe71bec08,
0xf609eef4,
0x06dd00c8,
0xc0fdedee,
0xfcccf6fd,
0x030f040b,
0xfaf70517,
0x100b13fd,
0xf9fbfc0e,
0xfd14f900,
0x0512134a,
0x2702ec00,
0xf0fd10fe,
0x0a0a030f,
0xfbedf62b,
0x10f50ef9,
0x01f8ec10,
0xedebf0fb,
0xeefaf911,
0x14f80307,
0x01f2ebec,
0xec06f1ee,
0xf010edb9,
0x030b09f2,
0x0d060802,
0x0f030b0d,
0xfc0ded46,
0x2201fbf3,
0x060bf8f8,
0x07f9f410,
0xebdc125c,
0xe8eb0b10,
0x00e803f4,
0xfe0df2f2,
0x0cccf361,
0xfa1113ef,
0x0b07ea03,
0xf6eff1fa,
0x0a21ed7f,
0x4310f3f7,
0xfb25f2f6,
0xebeb1006,
0xf74c0130,
0x3e060dff,
0x163b0005,
0x0e0e02f0,
0xecf00dd9,
0xc60905f8,
0x10e9eef7,
0x0bec0af0,
0x05c704b1,
0xaaeefa0c,
0x0db312f0,
0x0bfff6ff,
0x0db612a9,
0xd209fcfd,
0x11c100f4,
0x070f130a,
0x068b03ed,
0xc81303ff,
0x0bf11204,
0x0c10100e,
0xebeffb1e,
0x15070012,
0xfd09fa02,
0x090c0ff2,
0xfc30fcb3,
0xf0f5f512,
0xfbe8ff01,
0x0610feff,
0x123aeabe,
0x25f010fa,
0xea06f409,
0x09fd0309,
0xf742eea1,
0xeb01f30f,
0x031feaf6,
0xecf10af3,
0xebfcfcd5,
0xc2ebef10,
0xebc1ed13,
0xee05f1f4,
0xebe8ee40,
0x1b0ced11,
0xf1e0edef,
0xfdf3faeb,
0x10fc104d,
0x41f602f5,
0xf92612f7,
0xeffa0908,
0x07390f23,
0x5412f60b,
0x05390dfb,
0xf40205ed,
0x074310dd,
0x21fdf1f3,
0xf0291109,
0x01fd1110,
0x13030102,
0x190c0af2,
0x140504ed,
0xf1eeebf8,
0x0df90d41,
0x18ee12ee,
0x0c17f209,
0xf3f90e05,
0xeceffa00,
0xffeef102,
0xf8f9f3fc,
0xf1f30af0,
0x03fbf4f2,
0x0505f8ff,
0x0907f1ec,
0xf2fe09f0,
0xf3ebf027,
0x14f7eafe,
0xf0200507,
0xf3f8e9fd,
0xfdf2e821,
0x1500fefd,
0x0008fbea,
0x0b07ebf5,
0xf702fbe9,
0xebeceff2,
0xfdfef209,
0x06fa04eb,
0x07f9fe0c,
0xf3f70409,
0xfcfeefe9,
0xeefef3f9,
0xf4f6eb20,
0x09f1f2fc,
0x0509f6fa,
0xf7f40af4,
0xfceefa38,
0xfde9fe06,
0x07f00aec,
0x06090604,
0x04df0036,
0x0cf500ff,
0xf5f4f606,
0xf50a05f2,
0xff49f5fe,
0x47ec0406,
0x0525f2f8,
0xfcf5faf7,
0xeaf0f1d5,
0xec04f907,
0xf8fcfeef,
0x06f8eeee,
0xfff408a5,
0x0007080a,
0x02ed04fa,
0xf0000806,
0xfef1f681,
0xcbf4fef5,
0x02d5ed04,
0xed08ea08,
0xfcafefdc,
0xf3f5f3f3,
0xeddbfb08,
0x0501e904,
0x040e082e,
0x23f50602,
0x051eebf1,
0xfef4f4f9,
0x080704e8,
0xf901f1eb,
0xf2edf709,
0x02eefe0b,
0xf07001fe,
0x7804f907,
0xff5ef00a,
0xecfcfd02,
0xfc5df2d2,
0x4600ebf4,
0xeb6800ea,
0xf6f5f8f7,
0x021002e5,
0xfdf90408,
0xf5eef8ff,
0xf2f9f9f7,
0x05060818,
0x27ecec06,
0xf007fc0a,
0xf9fd0907,
0x0aeb0a64,
0xffebec01,
0xfff5f105,
0xee0305ea,
0xf20ef279,
0x6000effb,
0x025efa06,
0xeff4ecf5,
0x071a07f8,
0x0c080007,
0xf123f600,
0xeff8ecfe,
0x0a070a02,
0xfcf6f2ed,
0xf40006ed,
0xe90407fd,
0xf300f41c,
0x2004ea07,
0xfc28fa09,
0xf4f2fff3,
0xfef70308,
0x0dfaf3f2,
0xfc04fe09,
0x0803f90a,
0xf91aee23,
0x06f908fe,
0x0afdf9fc,
0x0af9fdfe,
0xf24a0615,
0x47eef002,
0xf229fcef,
0xf2f5f5fb,
0xfc3008e7,
0x280201fa,
0x01390108,
0xf8ef04f0,
0x01fc01f1,
0x05f3f5fa,
0x060c08f5,
0x07f5ee03,
0xf9fef520,
0x0605fff1,
0xfd03f1f4,
0x000209f9,
0xfa150a34,
0xf80703fb,
0x05fc03f5,
0xeff2fa00,
0xf009f5dd,
0x1efafeef,
0x0bfe02f7,
0xfcf2010a,
0xfb2807eb,
0x0ef9faf2,
0x0803f7ee,
0x0807f0ef,
0x0108f517,
0xfcf0fc0a,
0xf61004fc,
0x00eef906,
0xf0d4f30a,
0xdffd01fd,
0x05faf9f2,
0xf4f30304,
0x0bd2fb16,
0xc508f0ff,
0xf1a409fe,
0xf008eeee,
0xf06dfc18,
0x7f0902f4,
0xf64a02f3,
0x0bf909f4,
0xfb3cff2c,
0x1ff4fe07,
0xf73df109,
0xf100f2f7,
0xf6cd0814,
0xd208fa00,
0xefcf02ee,
0xf3f1f9fa,
0x040df191,
0xccf20209,
0xfdcf01f8,
0xef06f0fe,
0xeed4f429,
0xdd03f3fe,
0x07dbf6f6,
0xf8f6fef3,
0x08ef0523,
0x5b0af4f6,
0x0956f1fd,
0xfa09f8f2,
0xf61df1b8,
0xd7f604f2,
0xefeafbf1,
0xf706f104,
0x070effd7,
0xf3080305,
0x00fef2f3,
0xf0faeff0,
0xf0100317,
0x24fe04ff,
0x021deeff,
0xf10802f4,
0x031ef10f,
0x20f3f6f9,
0xf41d0503,
0x0afafd01,
0xfe2af3f1,
0x0f0900fa,
0xf401fff7,
0xf7f5f005,
0xf21ff029,
0x240800f3,
0xfe33faf4,
0xfc09f5f4,
0xf20f0823,
0x1a0af3fa,
0xf22d01fe,
0xf80a0308,
0x00130ceb,
0xfdf1f5fb,
0xfdeceeef,
0xfdf8f5f2,
0xf727faf5,
0x1e05faf7,
0xf6ffffed,
0xeeeef902,
0xf7330fee,
0x0306fcfa,
0xedee080c,
0x0f08f2fb,
0x0a1cffb7,
0xe501f902,
0xf2e200f2,
0xf004f1fe,
0x052ef6d7,
0x18f70407,
0x02350df7,
0xed03f1ff,
0xf01ff32e,
0x0ef5f501,
0xf5060af8,
0xf5f8090d,
0xf1470210,
0x7003f1ed,
0x01510f0c,
0x03f0efed,
0x0d250dd0,
0xe10b040a,
0xf2d2eef0,
0xfbff07f8,
0xff42fca3,
0x20fbf70b,
0xf2ec0900,
0xf004f306,
0xf911f2e2,
0x250cfcfc,
0xee23f105,
0x040bf506,
0x0a03ef10,
0x0dedef05,
0xff100af2,
0xfc020709,
0xf6f0ffee,
0x0b0a0200,
0xf21c0a0d,
0xf2f709f9,
0x0c230bff,
0xfbff01f1,
0x06df08f3,
0xf80a09ee,
0xfb670725,
0x5209f4f4,
0xee52090e,
0x080ef4f0,
0x0720f61b,
0x01edfe03,
0xf6f7f0f9,
0x06fd0403,
0xfed4ecdc,
0xf8fbfdf3,
0x09fa02fc,
0xfe0aec09,
0xf2da0331,
0xf003f7f8,
0x06dc0b0c,
0x04f6fdee,
0xffeaf87f,
0x5608070a,
0xfa58fff5,
0xf3f504fa,
0x06dbfb1e,
0x24f50b07,
0x02180104,
0x0ffef00c,
0xeffc0eff,
0xeff7fe0a,
0xf71b0fee,
0x0a0efaf9,
0xf9f30ed2,
0xc4f60df4,
0xf4e4f508,
0xf1f20501,
0xfeebf81f,
0xc605f0f4,
0x09bb03ef,
0xeefe040c,
0xedf80820,
0xf8f70dfc,
0xf20bf809,
0x00f901ee,
0x0d1a0ff7,
0x1bf7fdf1,
0x101e060e,
0x0a04f6f1,
0xee0005ff,
0x02f20207,
0x050a0bf9,
0x07fc0cfb,
0xe9daf612,
0xf90602f3,
0xe6fe09e9,
0x05ec06f0,
0xf0f8fc0c,
0x22e90be6,
0x03f7e9ea,
0xf6eefdf0,
0x021d002c,
0x4de705f3,
0x003dfa03,
0xed0808f9,
0xe61af02d,
0x310bfef3,
0xe74ee6f9,
0xf805f6fd,
0xfdd7eefd,
0xfcff02ef,
0xf0ed0602,
0xf6efe7fc,
0xf0f60315,
0x0f01ecf9,
0xf7f3f7e4,
0x09f3f30a,
0x08e4eb2a,
0xeb08f3f0,
0x08e906e6,
0xef04efe9,
0xecede603,
0x0106e406,
0xfc0dfaea,
0xf1e5ece8,
0x01dd0b1a,
0xe5ede8fc,
0x0df805f3,
0xf6f1f5f8,
0x0017fd0b,
0x090bfaf6,
0xff00fcfc,
0xf407fff3,
0xf2e3ebf3,
0xe702f8ed,
0xfff9fcf4,
0xf1f700f7,
0xeedff201,
0xcaf6fb0a,
0xffa8f7f3,
0x09010108,
0xf43cfbc9,
0x48f6e905,
0xfc28f908,
0xf1e4fefe,
0x03de0713,
0xd2f1fcff,
0x07db02fe,
0xeb03f409,
0xf2f4e927,
0x2dfa09fa,
0xf5f807f3,
0x06ffe5f3,
0xeb320a9e,
0xe2f9ed0c,
0xede602ec,
0xecf5eefe,
0xf126e5dc,
0x460009f8,
0xe8fefbff,
0x09fa00f7,
0xe52b04b3,
0x280708eb,
0xe83804ee,
0xf70b0006,
0xe816f3b7,
0x07fe0707,
0x00e3f3fa,
0xfb01ffe6,
0x032efb1a,
0x36ed0aea,
0xfe0cf9e5,
0x0cf9e7e8,
0x02fdfa60,
0x3fe6f307,
0xf71a09eb,
0x0c0dfcfa,
0xec2efb2c,
0x7f0705e9,
0xf768f8fe,
0x00eeec00,
0xfc3509e7,
0x31eff2f6,
0x0b26e805,
0xe90ae8ea,
0xfe1ff953,
0x4405f9fc,
0xfa280af5,
0xe808ee01,
0xe618fd50,
0x25fc030a,
0xfb3700fc,
0x020b05f9,
0xfa1212f9,
0xfd151011,
0x101bf214,
0x08170011,
0x1101f826,
0xf0fc1413,
0x0eeb1318,
0xfdf3f717,
0xf227fd0b,
0x13051219,
0x0cdbfdf5,
0x01170502,
0x19250fba,
0x14fff9ff,
0x0506f310,
0x0ff30afa,
0x13f3fde3,
0x1d0ef8f6,
0xfe10f7ff,
0x0c050300,
0xf8141833,
0x1b11f70e,
0x1510f70d,
0x0c090413,
0xf10a104d,
0xe9030f0b,
0x11f91109,
0x0f150afb,
0xf9130044,
0x34fcf601,
0xfe150710,
0xfc15f50f,
0xf464f311,
0x480a0711,
0x134efe04,
0x07f8f205,
0x100eff18,
0x12fff9fc,
0x081df012,
0xf217fe02,
0x18dc0f26,
0xe9140f0c,
0x0afa0510,
0x0507f905,
0xf9c41735,
0x8d02140d,
0x08b3120c,
0x0b0f06fc,
0x0ff0fc5a,
0x27031605,
0x0710ff17,
0x0ff10604,
0x1124082d,
0x1a170bf3,
0xf169f518,
0xfff4f407,
0x0ecc150f,
0xa80bfc0d,
0xefedf312,
0x0407f2f3,
0xf2e415dc,
0xaffdfd04,
0xf1de07f9,
0xfcf107f8,
0xf0b905f8,
0x81151500,
0xf496f9f6,
0x0efd0cf9,
0x11cdfc29,
0x18f917f2,
0x14e4f6f7,
0x040303f3,
0xf5c718c2,
0xbf05fc08,
0x0edefb07,
0x120913f7,
0x11c3f1e0,
0xa7060cf5,
0xefc4f80b,
0x0f0413f1,
0x1621f09e,
0xfe0916f1,
0x02daf1f4,
0x0df0090f,
0xf31209e5,
0xbb01f7f6,
0x13a8f302,
0x13fbfff3,
0x173605cf,
0x15fd18fb,
0xfcfe1011,
0x0ef306f4,
0x03090790,
0xe814f813,
0x01f2140d,
0xf0f5f600,
0x06e006c9,
0xdf02f903,
0xffbff7f2,
0xfb140416,
0xf2d8f0ee,
0x05e5e80c,
0xe7e108f6,
0x08f208e3,
0xfff1ef2f,
0x01fce0f8,
0xf80709f9,
0xf608fd0b,
0xe042fb3d,
0x58fafcf9,
0xe33806e1,
0xfee303e7,
0xe64eed14,
0x67f2e7e2,
0xeb3efb01,
0x0af5f4e9,
0xf8eef3a3,
0x0709f1e7,
0xf4f5f503,
0xe3ef00e8,
0xf50be5f4,
0xf4e9e7f5,
0xf3fbf4e6,
0xe40b03fb,
0xf00c0512,
0x130cf709,
0x07e60500,
0xe9f70601,
0xe9ce0a61,
0x2300e600,
0xf32ee3ed,
0xf8e0e5e9,
0x08ede719,
0x4effe10b,
0xf2200af1,
0xf40cfbf8,
0x097ff3cc,
0x4ffaf8e5,
0x046804de,
0x0ae5fbf9,
0xee14f10e,
0x30e0e3ff,
0xf007f4ef,
0xe606ed03,
0xe351f0cb,
0x66ebeddf,
0xe921ece2,
0xf800f7f5,
0x041af4e8,
0xfe0700f4,
0x04e40bee,
0x0bdf03fd,
0xf0acfe02,
0x00040003,
0xf4cfe9fe,
0xe5ebf5eb,
0x07fefd07,
0x12f9eff8,
0x0341f5ef,
0xf9f6f5f3,
0xf323e014,
0x2309dff3,
0x0cecf009,
0x060ae8e6,
0x041e04d3,
0x6eee09ed,
0xea71dff2,
0x0be7fc06,
0xf1e4f5cd,
0xc4e9ebee,
0xf6d209e4,
0xf706e7df,
0x061af4e9,
0x1bfbdfeb,
0xebdc08f0,
0xe0f9f4df,
0xea06fbd8,
0x28eaf1ec,
0xefe1f0ef,
0xefe4e9ed,
0x0b05ff36,
0x3df508fb,
0xff11fce7,
0xf9fb06e4,
0xe852e9b9,
0x4d03f6ee,
0xf145e3f7,
0xfef205f1,
0xf325f4bf,
0xf1f5ff0c,
0x09cfe4f1,
0xf6f505fa,
0xee150a19,
0x4d07fbea,
0xff1feee9,
0x07e6f2fb,
0xfa3fe527,
0x54fdfbfe,
0xf63d0701,
0xe507e705,
0xf7faec25,
0xfef4e9fe,
0x080ffefe,
0xe9f4f400,
0xfc10ea36,
0x33010c0a,
0x0617ee00,
0x04eeebea,
0xf5160621,
0x2eeb0dea,
0xff340ae7,
0xebf1e9fb,
0x03d7ecfb,
0xecf7f501,
0xf129f7fb,
0x04fb02f2,
0xf8baf4e7,
0xbaf2efeb,
0xf8e6f0f9,
0x07f40105,
0xf30cfb27,
0x2600faf8,
0xe921f207,
0x05fdeef5,
0x0dfaf427,
0xf7f800ea,
0xfaf3f1ff,
0x01f5eff3,
0xf4eff3f1,
0xfa08eb09,
0xefe20103,
0xf1fffbf9,
0xe70be9dc,
0xeff1f6ee,
0x01f4eefc,
0xf2030be9,
0xfcf50dd5,
0xd4fefae9,
0xf3b100f9,
0xf9fc05e8,
0xedfaf8f6,
0xecff0bec,
0x05080b0b,
0xf8fbedf5,
0x0bdbeee8,
0xd5f7ed07,
0x00b3050e,
0xe70c0801,
0x02ee0ae2,
0x0f06f8f0,
0xf0f2ea00,
0x0000fbfe,
0x0414fbf4,
0x0b0203ef,
0xf4f3e807,
0xf109ebed,
0xf031e9f4,
0x26f2fff4,
0xeff9f9f1,
0xf6e9fbff,
0x0322f2cd,
0xf6eef602,
0xfcf2e8f0,
0xf209ec09,
0xf90a00e5,
0x01ed09f5,
0xedeb03ef,
0xfd0805f6,
0x081debd4,
0x1df2ecef,
0xec1df208,
0xf7fd0003,
0xfa550000,
0x3afae8fe,
0x060b0eeb,
0x08f8ee07,
0xf541f857,
0x670400fb,
0xeb390009,
0x0905ebed,
0xf2070425,
0x1fef0206,
0xf133f30a,
0x0bfdeff2,
0xede6ee0a,
0x3b03f6fb,
0x02450cf0,
0xe9f10e08,
0x07d6ef16,
0x060bf100,
0xee36090b,
0xeff108f1,
0xec14e97f,
0x3d07ecec,
0xf747f4ec,
0xf2e8fa02,
0x0225075c,
0x3e0204fb,
0xf63dedf5,
0xf5eaf301,
0xfcfdfe1e,
0x2010060d,
0xf80ef913,
0x0004f70b,
0x02c2ff0d,
0xd604fdfb,
0xf5f8fa09,
0xf4f7faf7,
0xf8030fdd,
0xcf071400,
0x02e6000f,
0xfefc13fe,
0xff23f795,
0x0900fc05,
0x061afe15,
0xf9fb1514,
0x05c608bd,
0xe40dff03,
0xf5f70204,
0xfcf80a05,
0x08f9fab9,
0x070ff504,
0xf409f712,
0x0815fd16,
0xfbb201d0,
0xad0ef900,
0xf8a40909,
0xf60201ff,
0xff1711f7,
0x03030516,
0xfbfb0a09,
0x0d0a0dfe,
0x04770ce0,
0x16140ff9,
0x114015f7,
0xfdf90d0e,
0x1111fa81,
0xbdfdff0f,
0xf6d91510,
0x0ffc0812,
0xf6110ed1,
0xf90a1308,
0x01171214,
0x13fe0a14,
0x101d0bca,
0xedf6fef4,
0x11d91603,
0x0509000f,
0x0af40019,
0x0615fa02,
0x04f41615,
0x0301f9f6,
0x14421232,
0x1efe000d,
0xf71d0f12,
0xfb140b17,
0xfd4f0c1d,
0x21010a0b,
0x0f33f705,
0xfafc130f,
0xfcebf848,
0xd8070711,
0xfff607ff,
0x05fefaf8,
0xf514092f,
0x12170d15,
0x032c0105,
0x12f907f7,
0x171df720,
0x23fe020c,
0x0d21150c,
0xfdfffc06,
0x13e00036,
0xeefefe04,
0x0117080d,
0xfc0f0a12,
0xffb9002c,
0xd90bfff4,
0x02fafef9,
0x0e0cf7f5,
0xf8fe0bdf,
0xc406150a,
0xf9daf6fe,
0x01050211,
0x04f2ff32,
0xf50f1511,
0x06f5fb00,
0x0eff160c,
0x16f30a3d,
0x06030e11,
0x070f17fe,
0x0909f906,
0xfacafaca,
0xcef7f6ff,
0xfee0090d,
0x03fc16fc,
0x09cb17b0,
0xbd0d110a,
0x06b0fc10,
0x0413fe0b,
0xf604f8d4,
0xdcf4f8ee,
0x06d4ed01,
0x0aedef04,
0xf02906dd,
0x1703f0f1,
0x0bf1f6f8,
0x01ef06fe,
0xf822081a,
0x42f2f102,
0xfa2df1f4,
0x00f50101,
0xf802ed50,
0x0ef00501,
0xee1a0508,
0xf9ecf1f3,
0x02f40323,
0xe70bf908,
0x09ecedf4,
0xff0502ef,
0xf91b001b,
0x1305ef00,
0xfef801fb,
0xf9f6f103,
0xff5ff57d,
0x77f40af6,
0xfb7fef09,
0x06eff7f1,
0xecf4fb35,
0x1704030a,
0x0b410605,
0x00f300fd,
0xfbbc030c,
0xdfee08f8,
0xf5dd03f4,
0xfbed0b04,
0xfeeb0903,
0x16fcf7ee,
0x080eed01,
0xfafb08fb,
0xf1fefa55,
0x1bfefcf2,
0xef1eedfb,
0xf9fbeef2,
0x0aeefad7,
0x02f1ed06,
0x01050a0a,
0x01f7f9f5,
0x06e7f3ab,
0xd006f7f1,
0xefcefff6,
0x08f1ecee,
0xfb000000,
0x26edfc00,
0x0003f5f0,
0xf302f2ee,
0xf1eb0118,
0x00fa08f5,
0xf8fdfaf4,
0x04f001fd,
0x0003f308,
0xfafd08f6,
0xf6fff0f5,
0x090a0908,
0xf01af521,
0x1fec07f5,
0xf92b0106,
0x09f6faf4,
0x0119ed2f,
0x19f3f600,
0xf94209f2,
0xfb0c09fb,
0xeefeeed6,
0xe207f1f6,
0xf5eef109,
0xf4f5f703,
0x042003d3,
0x0aed01fd,
0x07e308f8,
0x01090bf8,
0x06bef517,
0xd3f5050b,
0xf6e70702,
0x07eeed06,
0xedcdfa00,
0xdcf1edf9,
0xfaecf606,
0x01f7edf3,
0x07fbfcb1,
0xcd09fcf0,
0x08c0050b,
0xf0fcf104,
0x0529f4e1,
0x19f20103,
0x0b09f7f3,
0xfb0a04f3,
0xf13cf41a,
0x49f6f801,
0x0233f605,
0x02f8f10b,
0xf9c8ef22,
0xf4ff0511,
0xfe001810,
0xf00b0801,
0xeeb1ff35,
0xe9f5050d,
0x18eafa0a,
0xee10f805,
0x0019fd2f,
0x4810f0f1,
0xf7180f00,
0x050af3f6,
0xf8060e08,
0x34090402,
0x11450b09,
0x02ed1019,
0x06b9f6e7,
0xdc14ed08,
0xf1efef01,
0xef0f10ff,
0xfcfef3db,
0xe5fc0400,
0xeee9f60e,
0xf7fbff0a,
0x14caf826,
0xc3fef1f0,
0xf7cef6fa,
0x0cfefcf8,
0x14810f17,
0xeb18faf5,
0x0508ef0d,
0xf40ef5f1,
0xfbeefdda,
0xaf12f1f1,
0x02f10408,
0x01f6eef6,
0xf71604a9,
0xd3f51104,
0x03ed0a0f,
0xeeeff70e,
0xf71901d9,
0x0d15fd17,
0xff031202,
0x04f01000,
0x15fa09d4,
0xd919f80e,
0x17d716f4,
0x1111fcf3,
0x07f4ff90,
0xe2f6fdfe,
0xfeaef90e,
0x08f3f2fa,
0x15f103e0,
0xbdf6110c,
0xf9beeef5,
0xf2f10bf0,
0x0fed0a14,
0x02fc150e,
0xfaeff1f9,
0x0307070f,
0x023d0ce2,
0x050bf307,
0xf218f712,
0xef190703,
0xfe580311,
0x3105f0f9,
0x1626f203,
0xf8f600ff,
0x1233f113,
0x670b1402,
0xf36716f7,
0xfd10fcf1,
0x0a04fb18,
0xd3f1160b,
0x04bd1114,
0x02eff419,
0x040eff1c,
0x2210edf4,
0x19cef9f3,
0x01ef0b0e,
0x05081127,
0x2cf10004,
0x013d0c12,
0x15fe06ee,
0x0eea000f,
0x041904f1,
0x063619ee,
0x09ef07fa,
0xf8a2f9ec,
0xa3000502,
0x15d40b0c,
0x17ebeefc,
0xfaf01451,
0xd60cfd15,
0x17ff04ee,
0x10170314,
0xf730046c,
0x62fdf404,
0x17711607,
0xf6f7fef9,
0x06070534,
0x270b0105,
0xfb09fbf6,
0x0afcf800,
0x070e0f40,
0x1010f7fc,
0x1522faf1,
0x120c1301,
0x06fcf9dd,
0xe609fbf4,
0xf8e60113,
0xfc15fe0c,
0x14e104bb,
0xd80d13f9,
0xfdedf400,
0x10f6040b,
0x05ddf7e0,
0xdd14fcf2,
0xf007fefb,
0x04070016,
0xfbe7fbf6,
0xef0b04ff,
0x021efc08,
0xf9fff114,
0x0cd50dae,
0xd706fafb,
0xf5cefe09,
0x0605f80c,
0x0bfb0899,
0xbe100d01,
0x0ca114f6,
0x130bf4f5,
0x0342f98d,
0xda14f500,
0x15fe0714,
0xf508fff8,
0x06ce129c,
0x9a0609f7,
0xfeaf0617,
0x0d00f30b,
0x000103c6,
0xe50cff0c,
0xffe60df5,
0x03f213f9,
0x023107dd,
0xf4fc120d,
0xfcf5f602,
0x02fd070b,
0x0a37f807,
0x0d1215f7,
0xf6e60cfe,
0x04f511f7,
0xf45b11f0,
0x38fe07f7,
0xfb09120f,
0x0b161408,
0x025f05e1,
0x1f1214ff,
0xf4fdf604,
0xf6f800f9,
0x05e20a28,
0xf6021100,
0xfb0d0916,
0x14fff810,
0x0bd41141,
0xe70d1609,
0x0ad90e05,
0x0ef5fff4,
0x1605f74d,
0x4515f206,
0x111c0803,
0x011014f7,
0xff30fa4c,
0x41f814f4,
0x0121120b,
0x010cfa0d,
0x010c1160,
0x2ef5130e,
0x163ef2fc,
0xfa081513,
0x01190dc7,
0x05fe0315,
0x111104f5,
0xfa0316f7,
0x09c9fe02,
0xc4070cf7,
0x0ad90607,
0xf40a13f3,
0x0ec0fe7f,
0x25f105fa,
0xf32513f3,
0xfe0d11f3,
0xf9ea0b59,
0xfb13f2f7,
0x103016fe,
0x0704fe02,
0x0ae20315,
0xf7050205,
0xfe15fe07,
0x02f5fb14,
0xf104f704,
0x18f0fa0a,
0xfaf4f702,
0xf6ff0cfa,
0xfa10f40b,
0x0e01000a,
0xef0a0d0b,
0xec0ce90b,
0xeb14f3f8,
0x3efd050f,
0xf1fff3fa,
0xfdf60b03,
0x011beed1,
0x2dfa0408,
0xee23f302,
0x0af104fa,
0xf2cd00eb,
0xc4f2fff9,
0xfdbf01f4,
0x05ff0802,
0x0c34f32d,
0x320bf204,
0xf336fa07,
0xf2f5f80e,
0x0a08f176,
0xfa07f1fa,
0xfe05f4f0,
0xedf7f308,
0xee26ea4a,
0x7ffbfef4,
0xff38ff00,
0xf90d09eb,
0x0a66032e,
0x2e000201,
0xee23fb09,
0xf2060e09,
0xfd3406e9,
0xf5050cfa,
0x04f50902,
0xeaeaffef,
0xfddbfd0b,
0xfb0af8ec,
0xf924e808,
0x0c0df701,
0xfab3020b,
0xa3eef3ef,
0xf8b0f4fd,
0xf0fce8f2,
0xeae4f444,
0x26f10901,
0x0f2afbf2,
0x08f6fd09,
0xec0eea48,
0x1804f1e9,
0x0c23f1f2,
0x07f301fe,
0xef1a020f,
0x41f5f8f3,
0xf541f0eb,
0xeff9eaeb,
0xf2e6efea,
0xcf07ecfd,
0xfad80207,
0x0209ecfd,
0xffdef4c4,
0xe4060aff,
0xeec4fcf4,
0x02f7feef,
0xf608eec8,
0xf2edfa00,
0xf9dd06f9,
0xeef7fcf9,
0xf4020adb,
0x2808fb03,
0xfc1d0b03,
0x0c0af0ef,
0x01e9ed0e,
0xece8f00d,
0xf2060d08,
0x0c08ed05,
0xf30808dc,
0xe6eafbff,
0xf2d7e7eb,
0xeced05f9,
0xe82aff07,
0x23fcfc0b,
0xef02ebf4,
0xf8fcebea,
0x0c660adf,
0x5c0c0c08,
0xf139f707,
0xf9e9ed03,
0xf30809c3,
0x17fef6ed,
0xe92d0dfb,
0x09e9ee04,
0xfddeeebc,
0xbdebf9f2,
0x0cc9ff02,
0xfaeefb0d,
0x14e00d0b,
0xf40310f0,
0xfaf20b00,
0x0e10f514,
0x0be90bfa,
0x090a1500,
0x08fa1216,
0xf0f3f616,
0xf2c8fef2,
0xeb0f0314,
0xfd10fa10,
0xff1315f8,
0xf6b51127,
0xe1fb0707,
0xfe1505ff,
0xfdf105fe,
0x14e41148,
0xe1f805f9,
0xf2e3160f,
0x0e09fb0f,
0x12ec1307,
0xe7020e05,
0xf6fc0a03,
0xf9f6fa0d,
0x05030201,
0xf2f90c17,
0xfc100efa,
0xf60f0c15,
0xf9fef6d9,
0xc5f60a0f,
0xffd10f13,
0x061303f1,
0xf8d60be6,
0x8ff70202,
0x12b5f205,
0xf90213f8,
0x00c30e08,
0xc802f1fd,
0xf2a20f12,
0xf703f010,
0xfae5feea,
0xe00df713,
0x0df0ff0a,
0xf80f09fe,
0x0ade0cd7,
0xc9140bfe,
0x11b80bf8,
0x00050f05,
0xf7fef4ae,
0x1b08f010,
0x15f31314,
0x04f4070e,
0xf4f204e6,
0xb614040a,
0x02cfff0d,
0xfcfb0200,
0x0cdff310,
0xf50cf606,
0x0dc6f213,
0x09fe010e,
0x0b23f7eb,
0xe3080b06,
0x11e901f0,
0x14f4fff6,
0x07420910,
0x1b0e0218,
0x0b030ff6,
0xf6f20eff,
0x1164fcdf,
0x55060c07,
0x105cf70e,
0x06f1f6f1,
0x15080ee4,
0xc21417fa,
0x12d8030e,
0xf90bff0a,
0xfa0a0a31,
0x3bf6f4f1,
0x12f61713,
0x0311100f,
0xfee8fc46,
0x041209fc,
0x17fff201,
0x0efcfcf9,
0x18d6fb7f,
0x3c05fb14,
0xf5390014,
0xf0f410f7,
0xf0f1f329,
0xdf14f006,
0x1423180f,
0x0f01f210,
0x04ef0a32,
0xeefe11fb,
0x04100d16,
0x15fef0fd,
0xf20f0a4c,
0x400ff5f4,
0x073f0d00,
0x1503fb00,
0x0c04f809,
0x01f8ef09,
0xf5f3f80c,
0xf9fbf507,
0xf6eff228,
0xfa0af701,
0xfeeff3f6,
0x09f9f1f6,
0xf7ef0b3d,
0x0d00f0f8,
0xf50dfd03,
0xf7050802,
0x0ce7fc04,
0x25f70c0c,
0x0a1dfefe,
0xfff20a03,
0xf9b3f7eb,
0xcdfefcf1,
0xfbd8f4ef,
0x040508fc,
0xfa1408fb,
0x0cf6f603,
0xf8fcf808,
0xf5f0fbff,
0x09d8f020,
0xcff100f7,
0xf7cc0a00,
0xf8fefd0a,
0x01d4007f,
0x37f10702,
0x0e31ef0d,
0x05f30a07,
0xf2110862,
0x1f090aef,
0xfb4205fe,
0x0df701f7,
0xf214f2ed,
0x0b0e0c00,
0x0ff5fa0a,
0x0e0c0703,
0x0104f2e0,
0x00fef6f3,
0x05edfdf7,
0xeffeff0d,
0xee0eeee7,
0xf907f8fc,
0x00f60602,
0x0804fff7,
0x0aa700f0,
0xcdf20cfe,
0x0eed03fe,
0x0afdfd0a,
0xeeb200de,
0xd204f7fb,
0x05bc05f8,
0xf5070a02,
0x070203f3,
0x15060108,
0xfb2207fb,
0xf2f3f3f9,
0xf108fe1c,
0x07feeefd,
0x02ea00ef,
0x0702fc01,
0x0426f1be,
0x3c0bf7ef,
0x032c06fe,
0xf80709f4,
0x011e01a9,
0xd203fcee,
0x04c9fffc,
0x0cf4ef03,
0x01110afe,
0x1bfbf3f1,
0xefec0ef9,
0x02f7040a,
0x0307f12a,
0x2804f304,
0xfc0bfe00,
0x0200eff3,
0xfd11000f,
0x0af507f1,
0x0d1ffaed,
0xf2f9fb0a,
0xf00feed1,
0x2206f9f4,
0x043002fb,
0x0a0cfc0a,
0xf50b0dcc,
0xff050dfa,
0xed1a0a0c,
0xef0200f7,
0x0be408f6,
0x0bf4f8f2,
0x0e0efcf7,
0x0bf10ef8,
0xfe0d0908,
0x1d00fb00,
0xee07f2f9,
0xfbfe0c02,
0xf1ebfaf1,
0xf106edfb,
0xf3e606f6,
0xf2fdeffc,
0x0300f8f2,
0xefec04f7,
0xf3f90803,
0x080701e9,
0xf024f0f1,
0x33fef5eb,
0xed16f100,
0xfaebf7ea,
0xf337fa09,
0x4b05ee00,
0x031cf102,
0xf5f801fa,
0xfc37eaff,
0x17eb02f5,
0x0902f305,
0xfe01f3f9,
0x07fbede9,
0xfeed0509,
0x06e3fdf8,
0xf6effff3,
0xfa22ead2,
0x13f7eeef,
0xf6ecf8fb,
0xecebfe03,
0xf218f3b0,
0x08f1fe04,
0xf1f9fafc,
0xfffeeffb,
0xfddeffd0,
0x02f5fffb,
0xf9effff7,
0xf200eaea,
0xef21f20d,
0x1dfdf209,
0x0327fce9,
0xf5070701,
0xf80bf319,
0x13ededfd,
0xf40bf1f4,
0xfcf7ecf6,
0xf62c0016,
0x45fdeb08,
0xff1707ec,
0x000106f5,
0xe97ff611,
0x59eff0f3,
0xe954f6f0,
0xeefaefec,
0xfa1bf80d,
0x06f5feed,
0xf108f4f2,
0xeffbf108,
0x06eaee09,
0xf9f6f3f7,
0xfd0006eb,
0x07feebf3,
0xffffeff2,
0xff0300fa,
0xecf0f4ea,
0x010608fd,
0xebf1ea20,
0x38fdf004,
0xf22907fc,
0xfd05ebfa,
0xf6dceffb,
0x0dff03fe,
0xfa18fee9,
0xfbf306f4,
0x002b06d7,
0x2df3f501,
0xf6150001,
0x02fcfbee,
0xfc12f7c1,
0xff07ea05,
0xea13fbec,
0x0408ff07,
0xfa0eec30,
0x1e08ffeb,
0xf81302f9,
0xf0f0ebea,
0xf11fe9eb,
0x1a05f907,
0xfe29ea05,
0xf5eff5fb,
0x0724ee08,
0x1503f0ed,
0xeaf6ffff,
0xed01fdea,
0xfa1af531,
0x3ff5efed,
0x061feff9,
0xfff606f0,
0x031ef50f,
0x13eb03f0,
0x0017fbf9,
0x08f0fffe,
0x08180f03,
0x26050e13,
0x0b1b040d,
0xfb14fa17,
0x14250426,
0x090d09f0,
0xff09f400,
0x1002fc14,
0xf51f08dd,
0xeafe0915,
0x01d4f5f6,
0x0f120b14,
0xfb1d02a1,
0xf106f80c,
0x16dbfa0d,
0x02f8080b,
0x112cfabb,
0x1f031603,
0x0e2a08ff,
0xf20a140c,
0xf8ed1604,
0x03fcf2f8,
0xf51f0bf2,
0xf6f6080f,
0xf80611dd,
0x14130403,
0x0a080ff1,
0x0e04f110,
0xf2f207d2,
0xd5f4170a,
0x10bb0b14,
0x15faf509,
0xf9580ca7,
0x45f50112,
0x073dfb00,
0x08f5030d,
0x140df3bb,
0xdc1402ef,
0x0f2ef610,
0x110905fc,
0xfdfa06e4,
0xeb160514,
0x0800fbf2,
0x1004f1f8,
0xf3190503,
0x120d17f3,
0x0f1f1402,
0x0a110215,
0x042e0c42,
0xfffb1415,
0x03e10505,
0xf2f4f7f3,
0xf87f0f14,
0x67f5ff09,
0x0348f401,
0xf4fb0411,
0x0e2b01ff,
0xd5f4f90b,
0x01da0912,
0xfaf2fb06,
0x17f20d0a,
0xf2fe0909,
0x000ffbf6,
0xfc0a00fa,
0xf2a10d26,
0xa40615fd,
0x05ccf408,
0xfc15f1fa,
0xf8c3086b,
0x2ff1fa01,
0x010609fa,
0x0ff817f3,
0x15000c3b,
0x150214fe,
0x132a170c,
0x06ff03f3,
0xfdecf507,
0xd411f3f4,
0x11f116f9,
0xf2f71312,
0xf427fb91,
0xe20b16f4,
0xfeff0a06,
0xfb050ef4,
0x08d70fcf,
0xa5020415,
0x06b508f9,
0x0a05f102,
0xf1bf0938,
0x02f30600,
0x01d8f808,
0x03fef4fc,
0x021013f2,
0xe700120e,
0x0e140511,
0xf3fd0205,
0xfcfc04fc,
0xd90a11fc,
0xfcf00302,
0x0b080310,
0x17f007d6,
0xf90eee20,
0x151a1afe,
0xfb1af7f6,
0x19ec1fac,
0xd5fce913,
0x1ae10bef,
0x0df50b0a,
0x0c241dac,
0x01f100fb,
0x02df110b,
0x1809f908,
0xe93c13aa,
0x1cfb0df4,
0xe807f0f3,
0x0716e911,
0x01ecfc33,
0x070eef09,
0xfe0f0b21,
0xf50a0afe,
0x05091bc3,
0x20ecea03,
0x040efe0f,
0x06071eef,
0xea4914b0,
0x3b1eef0c,
0x14f70a21,
0x091ff4fc,
0x197516d2,
0x39f7f111,
0x0b2e0821,
0xf30fef04,
0x0e6308c9,
0x06f1f110,
0xfe30ee08,
0xf40109fe,
0x20bbeabb,
0xe2100710,
0xecd40ef5,
0x1d0bfdfc,
0x1220ef3c,
0x3e12f1e9,
0xf0380cf9,
0x080c1b14,
0xec250739,
0x2e1803f6,
0x234d060b,
0x19f7030f,
0x063c1538,
0xf7160bf0,
0x1a15171c,
0x02f118f7,
0x09690229,
0x6efbeb18,
0x18440d21,
0xeffffb1a,
0xf01c0ad7,
0xdd0df703,
0x0c13eef2,
0x0a07050d,
0xfe9c174c,
0xb3f9eef2,
0x11dbfa03,
0xef02faf2,
0x09b7083e,
0xde131503,
0x0dc1f9fa,
0x0dec0ff1,
0x1be8f335,
0x03fef710,
0xfeeaf305,
0x1a1bf319,
0x1e20fff7,
0x2c05220e,
0xec4204f8,
0x0b06f9f2,
0xfad2f18f,
0x81f8fe0f,
0x08e8f421,
0xe91dfc18,
0x1de010b0,
0x8c0afa16,
0xf4aafcf6,
0xed0debff,
0x08e6f40c,
0xb71905f9,
0x0f9bf6ef,
0xf0090406,
0x1737217e,
0x48ea16fa,
0x200e1c1c,
0x00ecff0a,
0xfd3eefcd,
0x14f51e20,
0x1d250d07,
0x15fa121b,
0x16f5058b,
0x99140eec,
0xfda1f6e9,
0x170a1f06,
0xf50e0bf2,
0x0b0f0cf5,
0xfd131403,
0x09f90e0c,
0xfd0309e4,
0x04f30804,
0x16f317f1,
0x0e14f00e,
0x1543f3db,
0x02f01106,
0xefe8f412,
0x10f3ff0a,
0x124b10ea,
0x06fa0e03,
0xf00c09ff,
0x0806f9ee,
0x033af717,
0x3e120bed,
0x06270bfd,
0xf60bf5f0,
0xf6fbf9e6,
0x0804f60e,
0x0af703ff,
0x16f70c16,
0x1729f304,
0x39f5f006,
0x1103f8fe,
0x02170906,
0xfd1c02ee,
0x160c1713,
0x100f0710,
0x0b06fc02,
0x1620f7e9,
0x19090e00,
0xef230dee,
0xf3f40d13,
0x0adb0c1a,
0xf4f91010,
0xf910000a,
0x0216f0f0,
0x0b090839,
0x0b0917ee,
0xff17f4ee,
0xfd0f00f0,
0xf5000a3f,
0xfaf008f4,
0x1506fa09,
0xff120df4,
0xf22b0445,
0x1eef05fc,
0x0722fbf0,
0xf8ff1317,
0x0d62f11e,
0x1af70501,
0xf045f513,
0x08f20908,
0x0ee1fed2,
0xc20b12fd,
0xf1d3f50a,
0xf601ef0d,
0x13d8fbdb,
0xe2f912ef,
0xf21408fe,
0xee02fc13,
0xf781fe42,
0xb8fb01fc,
0x01aafef9,
0x0bef0d0a,
0x13af0778,
0xf6090cf0,
0x15090c16,
0x0407ef13,
0x0beafae9,
0xe61315f3,
0x042900fb,
0x00ed0313,
0x15effaba,
0xc3f1fd15,
0xf4d50607,
0x1405eef2,
0xf821068a,
0xecfdfaf9,
0x12e3eef0,
0xf1f907f6,
0xfbecf3ba,
0x9bf0fff2,
0xf98f100c,
0xf70af0fd,
0x0eeb10e5,
0xd312ff05,
0x0bbbfb12,
0xf6fff60e,
0x0e0714af,
0x0e0d0400,
0x01e2fd01,
0x16100d00,
0xf70fefc1,
0xf9fb0d0a,
0xfb000c03,
0xfd0df010,
0xf0cffceb,
0xf9f105f5,
0xf6e007f1,
0xec0b08f4,
0x11be02c3,
0xe707fdfa,
0xeefdf109,
0xf10a0ff3,
0x11e3f3c6,
0xfb0a09f0,
0xf818ec0e,
0xeefefc09,
0xea210902,
0x1b0b0807,
0xec3811f2,
0x06fbf905,
0xfffa0b27,
0xe604fcf5,
0xfd170aec,
0x05ec0612,
0xf70801a7,
0xd10fecf4,
0xedee11ef,
0xee09ed06,
0xf90a0392,
0xf7f0f9ed,
0x02ea07ed,
0x0301f501,
0x0e20f0ad,
0xbff40301,
0x10de0cf2,
0xfefd0ff8,
0x02ea03de,
0xc01002f5,
0x08b3f1f3,
0x01051009,
0x1013f1d5,
0xf6fcfcfa,
0x0210f8ff,
0xfceb02eb,
0xf72811ea,
0x1e07080b,
0xf5100809,
0x0408ef07,
0xf933edca,
0x41fff3fe,
0x0832eff5,
0xed0f0af1,
0x0549fdc1,
0xffec07eb,
0xf723f7f1,
0x121001ea,
0x08e6f50f,
0xcff3ffef,
0x0fdf07f8,
0x0f06ecf7,
0x0dfff723,
0x37ed0610,
0x10350bf9,
0xfb05f70f,
0xffee0e28,
0x02ffeb07,
0xf8000e0b,
0x120b0deb,
0xf47fee10,
0x7bf70af1,
0xf9750f09,
0xf0ee1007,
0x0d5103e3,
0x270afbed,
0xf63505fb,
0xf50b02fc,
0x0c00f2e3,
0x0ffa120e,
0x04e7f012,
0xf8070211,
0xf4f2f8e7,
0xfef70aff,
0xed03f611,
0xf91200ff,
0xfdbbf05f,
0xeaee0905,
0xece709ed,
0x0113f4f8,
0xea040e63,
0x64fbeffb,
0x1066eef6,
0x0ef8ee01,
0xf8210138,
0x1209eef9,
0xf120f808,
0x13060109,
0xf6f2f64e,
0x0dfc0bec,
0xf13206fc,
0x09f60513,
0x0706f603,
0x200d0a0f,
0x0f0ff90b,
0x02effb11,
0x0afbf4cb,
0xf2f909f8,
0x01eef5f1,
0xeb02070f,
0x0e15fc9e,
0x0b071108,
0x06ff0ff1,
0x13f911f7,
0x02bbebcd,
0xa4f502f4,
0x08d008ee,
0xfd0b060a,
0xf7df0e24,
0xaf05ee05,
0xfab2020b,
0x08080410,
0x0d3afe42,
0x23f40c02,
0x0a12f506,
0xeb000eff,
0x02070fd7,
0x09ef01f8,
0xf9f4f6f7,
0x0afa0010,
0x0250f7b1,
0x4beeecf7,
0xed47faf4,
0xf800f8f7,
0xf14412c1,
0xbae900ef,
0x01e10efc,
0xf903fbfa,
0xf7a4f419,
0xc813fe13,
0xf19cf512,
0xfe0eeef7,
0xf4ea0a31,
0x37feef0e,
0xf81b12ea,
0x09f8f2f6,
0xf42efaf2,
0x42f513ee,
0x160cebee,
0xf3f200ef,
0xfa2f0fdf,
0x7afcf404,
0xf57f0aef,
0xfc0cee0d,
0xf6d8ffd1,
0x8b02f007,
0xf1e7f30c,
0x0401ef04,
0x08e3ebd3,
0xeafaf609,
0x03c0edfe,
0x120beef9,
0xf42dfffa,
0x49ebf903,
0x0f4f110f,
0x13eef305,
0x0c0c084b,
0x28ebf901,
0x0233fffd,
0xf6effaff,
0xfd350af5,
0x33fe0b0f,
0x0a2ff500,
0xf7fc0cfb,
0x1211fde0,
0xc4feea08,
0x0ad907f9,
0x0ffcf100,
0xeef1fe3b,
0x4f07eefe,
0x0435f9f6,
0xf60fed0f,
0xf5f90805,
0x0a090efc,
0xf93d02f8,
0x04f20810,
0x02cd001d,
0xdb0cfbf9,
0x01e30df9,
0x0bfd05f3,
0xeec10531,
0xfff9fc07,
0x11fe0408,
0x12f7080d,
0x0ff3f743,
0x0f0bf102,
0xff06f9fa,
0xff03effa,
0xeaf800f2,
0x10f504f2,
0x0d0d08eb,
0x03f10bf2,
0xf0fcf7f1,
0xf20307ff,
0xfbdbff10,
0xf2fd0606,
0x04edf80c,
0x011007fc,
0x0a301df9,
0x0e03f718,
0x05d8f026,
0xf506fcf6,
0x010ffbf8,
0xfef211fa,
0x14d9fbdc,
0xe01c1107,
0x1cf40409,
0xf8f2fd00,
0xf1d6f5e6,
0xcb0417f9,
0x170df618,
0x19f81116,
0xf5be0c06,
0xcd161c1c,
0xf1e90411,
0xfbfe16fb,
0x05e919c3,
0xea03f4f4,
0x0e0d19f2,
0xf7f80001,
0xfac80f96,
0xa5f801f8,
0x07d0f70c,
0x14020d1c,
0x11fbfbc3,
0xd20b09f1,
0x0ccff8f2,
0xf912fef5,
0x194215d4,
0xe90e1b03,
0x08ed0cf1,
0x02faf90e,
0x00f7089c,
0xae180a12,
0xf3c3101b,
0xfe150ef6,
0x191d1aa1,
0xea1ef217,
0xfcfafffa,
0xfcfef50d,
0x134df7b4,
0xfe131e0f,
0x09fcfc1d,
0xfaf7021d,
0xf0e50cd3,
0xd8050f14,
0x1cf6f604,
0x10090104,
0x0c010ffb,
0xdefc14f0,
0x15ec0315,
0xf20af907,
0xfb4a0bfe,
0x55ff1d19,
0xfa2a18fe,
0x1a1d14f8,
0x13e30d50,
0x0a0315f9,
0x0506fafa,
0xf0f60306,
0x0f5afa04,
0x18151101,
0x172b1c1e,
0x1b1a1705,
0x105b0ac9,
0xdf05fdfe,
0x10e60d1b,
0xf6fa0a18,
0xf62f042f,
0x29001d10,
0x1cf7fe19,
0xf3160608,
0x19100e7f,
0x44ff12ff,
0x1a2e1d14,
0x071afcf0,
0x1c021a1f,
0x05f9f116,
0x08e50d09,
0x1c00fefd,
0xf5e3fb5b,
0x3d141205,
0x0b510d0e,
0x07f3f109,
0x03e41d56,
0x2b170b0f,
0x11561e06,
0x01f9fdf9,
0x09c2fd62,
0x000ffb12,
0x0c1e0c01,
0xfff917f7,
0x06ddfa16,
0xf2f5fd12,
0xf7f400f0,
0x0700f7f7,
0x0335e624,
0x1c0cef0e,
0xedfa0d05,
0x03fefafc,
0xec2a0829,
0x2af1fd0a,
0x0016e8f5,
0x0afd0e0c,
0xea03e51a,
0xeb0cece7,
0xf9d8fa00,
0xff0f07ff,
0x0329e798,
0xecf8e50f,
0x0ccbe505,
0x020e0a02,
0xf0320496,
0x420ce60f,
0xe41f0eed,
0xf7ecf007,
0x04090630,
0x210dff03,
0xe819e5f4,
0xfe01eff1,
0x08e10107,
0x010f0b0b,
0x0de9f40e,
0x02fc0f0b,
0x04f8e71c,
0xeef80c0a,
0xf2d206eb,
0xf9e705ef,
0x085b092e,
0x7f02ee08,
0x0464f0e9,
0x00fa0de9,
0x0d420306,
0x4effede8,
0x0373f0fd,
0x0ff906f2,
0x031cf6c6,
0xfff9e7f9,
0x0cecef05,
0x0507ed07,
0x0815f5e8,
0x35f3e9fb,
0x070fe908,
0x0709f6ef,
0xf3f1f46c,
0xf4100beb,
0x0af5edf4,
0xe5e6f80f,
0xf72af221,
0x4b00fd02,
0x0e29fdf0,
0xfd07ebf0,
0x0b19f6ff,
0x03ebff0b,
0xe72e0309,
0xf9f9fffa,
0xfedff82e,
0x1aeaf4f8,
0xff19f1ef,
0x02f7f6f6,
0x00bbfbe9,
0xeffce5ec,
0xfbe70eeb,
0xe8e40d00,
0xffc2eb12,
0xb8fde8f9,
0xf1b5f70c,
0xe5ed060b,
0x0ef0f32b,
0x3a060c02,
0xe922f4ef,
0xf7fffa04,
0xf4d70e0c,
0xd0e909fa,
0xe6150d03,
0xe50af1fe,
0xee2de7d7,
0xebfbe607,
0x010c09f5,
0x08f0030b,
0xf2120d9e,
0xeafdfcf3,
0xfcba01fc,
0xff04ed08,
0xfd2f01fb,
0x250df607,
0x0de2f1ed,
0xfd0305fb,
0x00f4ebbb,
0x17eb00f7,
0xf5030a0a,
0xefe50007,
0x00e505b1,
0xd0fd08e7,
0xf3c7090c,
0x0704f0f0,
0xf20400f7,
0x1402f7ee,
0xecf6f206,
0x04f6f602,
0x0126f70b,
0x38f0fbfa,
0xec1e0be7,
0xfbec0608,
0xfe23080f,
0x2ff304ee,
0xea230afa,
0xeefaf108,
0xfe0ef40b,
0x1308f101,
0x0204fcfb,
0x08fdf103,
0xfa25e9fd,
0x07f20903,
0xe90afcfa,
0xf000fceb,
0xf70c043d,
0x2af6f208,
0xf311fcee,
0xf50207e8,
0xeb1a062a,
0x2301fa04,
0x07f505f8,
0xf7fbe9f5,
0x0733e8d7,
0x2efaeb09,
0xe906f4ff,
0xfe050709,
0x052ae812,
0x0df2f408,
0xfb00fbef,
0xfd0209f3,
0xf200ef4e,
0x110ae807,
0xff1deaee,
0xfbec03f5,
0xefe0fc04,
0xecedef00,
0xe7dfeeec,
0xe9ebe9f5,
0xfccaec4a,
0xe3f7eaea,
0x06cbee09,
0x09fdf7f3,
0xfe6ef46f,
0x7fe8f004,
0x0168f0f1,
0xebfcec04,
0x0226ec28,
0x47060af5,
0xf82dfc07,
0xeeeefde8,
0xe8d5f1fe,
0xed08f2f3,
0x01f902f7,
0x09f409ed,
0x030308c3,
0xd5ebfdf5,
0x0ad1ef04,
0xfa00faec,
0xeebfeaf6,
0xf8f1f501,
0xfcb0fffd,
0xf207fcfc,
0xe8bced08,
0x1501f6ed,
0x03f0f9fa,
0x0a0506e8,
0x0025fbd9,
0x2bf0eeff,
0x072f06f1,
0xeafa0aea,
0xef2bebd9,
0x07f5f9f1,
0xed1b08f7,
0x02e9eb00,
0x0127f1f2,
0x29e8f700,
0x0526f804,
0x0105f9ee,
0xf54e05bc,
0x26ec02ff,
0x09f4f607,
0xf4f8f9fb,
0x045ef0e3,
0x43e804f2,
0xf30afefc,
0xfbecf6ea,
0xfa36f71d,
0x4303efed,
0xf536ecfc,
0xeeedff08,
0x09dbe8f5,
0xee09f1f8,
0xf8e0f6f5,
0x0301f307,
0xe6e8ef11,
0x08e8e804,
0x03e8f6fb,
0xf9fbf6f1,
0xefd60a0b,
0x03f7f9e6,
0xe9ff0009,
0x0af10ef8,
0xf52508d4,
0x16ef03fb,
0x0110f502,
0xf1e80b0c,
0xfe57fdc4,
0x4f0600ec,
0xf33005f1,
0xef0bfef8,
0xf8f911ac,
0xf511eb11,
0x1314fd0b,
0x0afff201,
0xec1dfeb4,
0xf409fced,
0xf5fdf2ed,
0xf20601f1,
0xf4cff5ac,
0xd70ef0ec,
0x09eee806,
0xedec02ec,
0x0cd3fff8,
0xdeef05ea,
0x0ebfec10,
0xe8100eed,
0x08170fe8,
0x110dfe00,
0xeb1fe708,
0x0ded0ae9,
0x02461086,
0x03fee5fe,
0xf01309f3,
0xef0feb07,
0x042d0ff4,
0x4109edf2,
0x0620e6f2,
0xf2f206fa,
0xe6750494,
0x570d040f,
0xeb33f6e6,
0x0e0209e9,
0xe81e03c6,
0xc1f80f03,
0x0fd50610,
0x0d000bff,
0xecdc021e,
0xfe0608eb,
0xe7d6f600,
0x02faf3ef,
0x00590d0c,
0x4dfcf0f4,
0xeb470703,
0xfff00a06,
0x0ce3fc49,
0xee07fffb,
0xf609f5f4,
0x03080afa,
0xef46020b,
0x4bee07fe,
0xf67f10e9,
0x0bfbece9,
0xef380bdf,
0xdbf70d01,
0x05e7fb0d,
0xe8fc0cf9,
0xf527e60d,
0x32e6fbea,
0xeffffc07,
0x001001fe,
0x11e710f8,
0x1ffbeefd,
0x0e16fe0c,
0xea0910ee,
0x08fd0a48,
0xe6f7020c,
0xe6d3edff,
0x020d000e,
0x101eeb32,
0x63ffebf9,
0xef50fd06,
0xe5f509f1,
0xf2190033,
0x380c04f6,
0xe92bf00d,
0x0ee9f0f0,
0xe7f00761,
0x45f6e90f,
0xfd3feb08,
0xe8060a0e,
0xec22f403,
0x0c03f7f7,
0x0a24fee9,
0xf5e9edf3,
0xef05ff1a,
0xfe0f0a10,
0xfafe1107,
0x02f40afe,
0xf8f0fa33,
0x1d0df504,
0xf3210e05,
0xff0af806,
0xf12a0cfd,
0x0ef80b02,
0xf30c0f0b,
0x0ef10d0f,
0x071904e7,
0x100d00f3,
0xfd020bf3,
0x0e09f3f9,
0xf205fcc2,
0x05f2f8f1,
0xf916f704,
0x0e030ff4,
0x03e510ce,
0xe6f0fd01,
0x03eb0cee,
0xee12f406,
0x04c8fe9a,
0xf100f205,
0xeef407ff,
0x08f10a11,
0x10bafcf4,
0xcbf2eef9,
0x08d2fdfe,
0xf6f00d09,
0xfefa00d3,
0x0201fef6,
0xf9fb0ef6,
0xef11030d,
0xf626f499,
0xfb0df00b,
0x00240bfa,
0x04f50807,
0x003e05d2,
0xfefe0301,
0xf5f90d0c,
0xfc030af6,
0x0f6af7b0,
0x4b0fee0d,
0xf7431208,
0x01fc0002,
0xfa000fa8,
0x9009fe04,
0x0d8106f0,
0x03f90c0b,
0xf21cfdef,
0x310ef90e,
0xfdef0ff1,
0x0f12f40a,
0xf05df1f1,
0x2308fa0b,
0xf01cf211,
0xf10a0afb,
0x0d071252,
0x21ff0e04,
0x0d281107,
0x0efdf5fb,
0x0317fb0b,
0x330deff1,
0xfe3a1201,
0x0ff0f2fa,
0x0607fe42,
0xf6fd0407,
0x0ffc1004,
0x030eee0c,
0xf334fe77,
0x4feffdf4,
0xf833f90b,
0xf7020d11,
0xf5130951,
0x2206f4ef,
0xf62ff8f4,
0x0af000f5,
0x06fb12fd,
0xfc000df3,
0xf6201204,
0xf805faff,
0x10e402f0,
0xe6f2fb0f,
0xfeff0204,
0x0ff8fdef,
0x0db6f155,
0xebf5f508,
0x06e8f0f0,
0xf5f40808,
0x04d90446,
0x03fb1005,
0x002d090a,
0xfcfbf8f9,
0xf51ef80f,
0x23faf803,
0xfa2f04fa,
0x0d0d13ff,
0xeafeeadb,
0xfbeef7f5,
0xfed5f4f7,
0xf208f1f6,
0x082206bd,
0x18f506f8,
0xf60b0704,
0xf6faeffd,
0x02f2f2f4,
0xe8f8f301,
0x0612f707,
0xf7effeee,
0xecf6f322,
0xebed0109,
0xfdcfeaee,
0xf700f4ff,
0xf0440117,
0x34fb06fc,
0x060ef2fa,
0xf8fafc09,
0xfa22ed55,
0x1eff03fc,
0xf0f706f8,
0xf1070aff,
0x086e0822,
0x7d0907f3,
0xeb79efeb,
0x08f10404,
0xf63beaab,
0xc9f5fceb,
0xeec90007,
0xf9ecf8f7,
0x04c302eb,
0xdeeef201,
0xf2b5f3fd,
0xf4feeb03,
0xfa1afe5b,
0x61f20700,
0x0642f6eb,
0xf6f5f7eb,
0xf9dbee39,
0x01ebf4f9,
0xfe13f9f6,
0xfcf1fc00,
0x00dc06fe,
0x0801f5fb,
0xfdfaeef5,
0xfff60109,
0x0654eee1,
0x2efaedf0,
0xfd1febee,
0xeffdf307,
0x08f3f709,
0x22eff104,
0xf11ef4f2,
0x03eefdeb,
0x05d30243,
0x09edf8f2,
0xfc02f208,
0x0808eefe,
0x06ed00c8,
0xf1fd06f5,
0xf6fbeb03,
0xecf307f4,
0xfd1af130,
0x26efeafd,
0xfdfbf7ec,
0xebf30504,
0xf22af51f,
0x50f70406,
0xf373f3f1,
0xee05fcf3,
0xf6d9fece,
0xeb05f5f4,
0xecf2ef03,
0xf309faf5,
0xf90603e1,
0xeffe0407,
0x00030708,
0xf2f2fff4,
0x00d4ff2f,
0xebf0f0ef,
0x00ddefff,
0xf7ee01f9,
0x08fcfa7f,
0x2aeb00ed,
0xf81ef5fe,
0xf7fff5f9,
0xf554f40c,
0x3104efeb,
0xf51bf9f3,
0xf7f0f1eb,
0x0137f213,
0x2ffe07ec,
0xf728f508,
0xedfcffeb,
0xea06f121,
0x1dfcf0f0,
0xee0b03fd,
0xf5f4f8ec,
0xf7f412ef,
0xf60b000a,
0x0ffbf611,
0x13f00d02,
0xf3020a23,
0xe4f7f7f5,
0xefe40b10,
0xfbfaf100,
0xfef3113c,
0x1bf4fff8,
0xfdfdfdf7,
0x04f0fd00,
0xf6ecfd36,
0xf3faf9f2,
0xfff2f503,
0x04f9fb0f,
0xf81f0c17,
0x1cfa13fd,
0x04000413,
0xfdf4f40c,
0xfc07072f,
0x07fa0703,
0x0cfef6f5,
0x0fef02ff,
0x11140e62,
0xfaf5fc07,
0x0100f705,
0xeef5f5f3,
0xffe4124c,
0x25fd0707,
0x0c280c07,
0x0ffc0611,
0x0bbb0338,
0xf8f601f0,
0x0510f7fa,
0x10120e12,
0x00f60f6a,
0x0eff1207,
0x040310fb,
0x0204f105,
0x0ef10c2a,
0xd2fe0f0b,
0xfbf0f9f3,
0x01100711,
0xfcb3f835,
0xb404f911,
0xf0bf0cfd,
0x08fe0ff3,
0xfcea0223,
0x300bf404,
0xf13111f2,
0x060a0f02,
0x0bc4fcda,
0xd411fdf8,
0xf3e40601,
0x10000808,
0x0f9b0908,
0xd1100607,
0x0fb0f1f9,
0xf407f4f8,
0xf534fbb3,
0xf3f8f70f,
0xf3f0f60b,
0xf8f50cf6,
0x04d207df,
0xccfaf2ff,
0xf8d50e10,
0xfff4eff0,
0x04dd09f0,
0x0ff40afa,
0x0d140d11,
0x0ffd08f2,
0x01de12c9,
0x9cf3fcf4,
0xffbe00f4,
0x0cf0fcf6,
0x120bffdd,
0xeff3f4fd,
0xfdcb0b01,
0xf4fefc09,
0x0f22f90a,
0x1ef9f50f,
0x0918f3f5,
0xfdfd12fa,
0x08260ed1,
0xf1f5f711,
0x0ef00604,
0x080c07fd,
0x06f6f181,
0xcdf5f30b,
0xfabf0ef7,
0x000c010e,
0x12ff06c6,
0xd70dfffd,
0xf8bb07f2,
0xf611fcf5,
0xf3210b16,
0x270f12f8,
0xf028f308,
0xfa0bfaf9,
0xf6eef8d9,
0x010e05fc,
0xf7f4fefc,
0x12f7fc09,
0xecfb06b3,
0xf8ebf4f4,
0xecf9feec,
0xf10d03f1,
0xf0d3f505,
0xc4ff12f3,
0x0cdffe0e,
0xebf3eff5,
0x04ebf336,
0xccf51215,
0x05c510f3,
0x0afb10f2,
0xed560538,
0x5afffc03,
0x173006ed,
0x11f00bee,
0xeefb10fa,
0x030bf4f8,
0x14f3fd10,
0xf206f10a,
0x0447f603,
0x0f0007f4,
0xef110af4,
0x12f2ff09,
0xef2b001c,
0x15ef01eb,
0x0e11070a,
0xf7fc0aeb,
0x0ab60630,
0x10ec0df3,
0x0ce9f00f,
0xfbee0108,
0xf3ef027f,
0x501514f8,
0x054601f7,
0x05f308ee,
0xfa0d0c08,
0x090715f7,
0x0be9070f,
0xfafefc0c,
0x0b0b0a56,
0x300c0feb,
0xfd35ed00,
0xf20df9ef,
0xebd5f743,
0x220a13ff,
0xff32140b,
0x10f20d01,
0x05bf12e5,
0xe80cf40b,
0x10e3f215,
0x0302fd03,
0xf1c7fcf3,
0xf7f80406,
0x09df06ed,
0xfdfdf0f0,
0xec38f803,
0x25fa1414,
0xf63ff70f,
0x10fbeefd,
0xf3e5f9dc,
0x04f20206,
0xff0cef0a,
0xf1fdf3ed,
0xf5b301dd,
0xa9ff0ff8,
0xf69c08fc,
0xf60ef9f4,
0xf6cdf2de,
0xf4040bf7,
0xfe01ed08,
0xfcf4fe0a,
0xf3f909b2,
0xe7f9fdf1,
0xf4fbec14,
0x0405edf1,
0xfff0ff21,
0x090a080e,
0x0214ff13,
0x03feefed,
0xfc3603ac,
0xf400f6f1,
0xf2da0712,
0x06110c11,
0x100cffad,
0xd700ebef,
0x13aef50c,
0xf3f4f2fa,
0x13130fc3,
0xf402ef12,
0x06b7f3ec,
0x07010107,
0xfe0004e0,
0xec05f513,
0xfbd604ff,
0x0f0aeafe,
0xe80ff919,
0x13fe0cf8,
0x09f60bea,
0x03fbf007,
0xf210ff23,
0x17fb01e5,
0xfa1ef3e7,
0xfef6f101,
0x08ce0242,
0x31f2e9e9,
0xe7060700,
0xe5e30ef8,
0xf8c90e38,
0xeffee4f3,
0x03ff0d08,
0xe6f109e8,
0xeccbf9fb,
0xebfcf5f8,
0x0ade0cf4,
0xfee3faf3,
0x06f0e20e,
0x1104fcff,
0xf811e305,
0xf1fd08e4,
0xe4c20913,
0xbcffe8e9,
0xf7f6eae9,
0x030bf205,
0xf7a9fb38,
0x03e3010a,
0xfdfff602,
0x01f6e6ef,
0x03acf94a,
0xd3e40609,
0xe8d90cf3,
0xfde907f3,
0xe50a0322,
0x0de9e9ed,
0xffcbfbf2,
0xeffdf70a,
0xe606e4be,
0xeef1ecf4,
0x02c50eed,
0xe7f103fb,
0x001df4cd,
0xe304e801,
0xf4effce3,
0xf3f5fce1,
0x02e7f2ca,
0x0008eaeb,
0xf00c00f5,
0xe709e5f8,
0x07a9f0bf,
0x9f05f3fb,
0xfb84f8ed,
0xe608e9e8,
0x01f8fbe0,
0x3809e9f4,
0x010c0bfe,
0xecf20800,
0x00540418,
0x3ef807f9,
0xfdf9f000,
0xf6fcfc06,
0xfc3df6d1,
0x480708f9,
0xf22ceafa,
0xe9ee050c,
0xfb1d08a8,
0xd10cfbe8,
0x09bb0afb,
0x0cf5efff,
0xe651fd0c,
0x46f5e50c,
0x0ae8f2f2,
0xf90ee509,
0x0c470a4c,
0x7fe7e4e7,
0xfe4afcf8,
0xf9f904f9,
0xec0efd32,
0x5d070ef2,
0xf044fa01,
0xfae700f4,
0xf006ead7,
0x5009fbf4,
0xe7590c0a,
0xf8f005ee,
0xede7fed5,
0x04f0fbe5,
0xf611e3e2,
0xf4fef005,
0x01fbfc5b,
0x1ae9ebfa,
0x042dfbef,
0xfd0ffeed,
0xe90ee646,
0x1ff5fe0f,
0x051febe3,
0x0bf5e3fa,
0x0bfbf8ea,
0x0507f7e7,
0xecdee9e5,
0xe5f106fa,
0xe0ceeff5,
0xffe706e7,
0xe7f706fd,
0xecf5ed0d,
0x07e1e02d,
0x1de3f70c,
0x070ffb06,
0x09fb0be2,
0x0800e660,
0x27e5f804,
0xf40ee7fc,
0xeaf0e909,
0x03faf4fb,
0xeefaf8ed,
0xeecafe05,
0x0bf9ef01,
0xf7f5f9c6,
0xf6e10404,
0xf0f6fd07,
0xea02e9f5,
0xedd90cc0,
0xd5fefce2,
0x07e30ae1,
0xe7070a0b,
0xe6f6f72d,
0x40f7f002,
0x05110df9,
0xeaf7eafc,
0x0998ff2f,
0xfcf8fd02,
0xe6e1f5fb,
0xe40ee509,
0xea39ee0a,
0x38fbe90a,
0xeb2a0407,
0x0afefbfb,
0xe708e4d5,
0xfde8ffff,
0xeee2edf4,
0xfaedfce4,
0xf34ff4fd,
0x71f10be7,
0x0845e7e2,
0xf7f108eb,
0xfa0b070c,
0xec04f60b,
0xe71efbe7,
0xf2ebe2ed,
0x09cce0df,
0xf4f3f9ef,
0xf4a50403,
0xece30df6,
0xf427fce6,
0x4cfbf709,
0x093cfee7,
0xf9e2f5e8,
0xed54e05b,
0x69f20105,
0xf51806eb,
0x09ecf0f8,
0x0242eed0,
0x6ee7e100,
0xe367e50b,
0x09e5f5ef,
0xf1dde9c9,
0xa5f2ffe5,
0x0395e509,
0x0af807e4,
0xf4680830,
0x7feffdef,
0x0c57df0b,
0x09f00cfa,
0x0522e6eb,
0x3e03ff0c,
0x0f350602,
0x0ef5feef,
0x0905ee4f,
0x2ce8ef0c,
0x0032e9e9,
0xf4f505e5,
0xf20efe8e,
0x1d0af8ea,
0xfc2ee8e3,
0xe60e0ee1,
0xf5d5edbb,
0xfc09e5e8,
0xfdeeeb03,
0xf709fefe,
0xfbc5e033,
0x23eef3e8,
0xf31001f9,
0xe90a00e5,
0x0915e70c,
0x28e70002,
0x0f1a01fe,
0xfd0205fe,
0x05f714f5,
0xec02fd03,
0x03f709f8,
0x0a0a0514,
0xfaeb02bf,
0xe8f80cfe,
0x11fbf714,
0x06fe0f0f,
0x0bdb03dd,
0xbff701f5,
0xf6d30516,
0xfc12f50b,
0x06e705fe,
0xdb140af6,
0x0ed5110d,
0xf5110bf7,
0xf8fb05fc,
0x0802fdfa,
0x000afe0a,
0xfc0406f7,
0x140405c6,
0x0a09f9fc,
0x04ef130f,
0xfbff0c09,
0x06280adb,
0x2e1115ff,
0x131df90c,
0xff0605fb,
0x0e0e110f,
0xd3fdfe09,
0xfe080f05,
0x0101f901,
0x07e51311,
0x0a150913,
0x11fd1100,
0x16131108,
0x01fd14ec,
0x150a0409,
0xfa19110c,
0xf8f90912,
0xf933ff23,
0x43120a12,
0x05390704,
0x1402f9ff,
0x1030fff3,
0x2e161012,
0x1045fdfe,
0x090e1211,
0xf8a90fe5,
0x81fd0106,
0x01b80d0d,
0xf80f0afe,
0xf7df15fd,
0xf70cf811,
0x08020605,
0x0a010e06,
0xfd26fb1c,
0x0af9f709,
0x0e0f05f6,
0x10040b04,
0x14e4f63c,
0x0af91204,
0x1126f816,
0xf9100eff,
0x020cf8ff,
0xfd1108f5,
0x041d06fc,
0x13130e09,
0x08fd090b,
0xd7160f11,
0x01fafb04,
0xf914100d,
0x0aca0915,
0xdcf8f7f9,
0x04fd1607,
0x10fcfefb,
0xf9cff80d,
0xc80ef503,
0x03e80e11,
0xfc141510,
0xfbd90cf4,
0xce0f0aff,
0x01c814f9,
0xfa07fb11,
0x11d0fd30,
0xdaf406fe,
0xfbe4090b,
0xf505ffff,
0x08fc0619,
0xe51101ff,
0x0efe0507,
0x0211f4fb,
0xf5fb06c5,
0xcb11f7fc,
0x01b6fafb,
0x1514f6f9,
0xf5040adb,
0xe807ff11,
0xfde11002,
0xff0d0902,
0x17fd010f,
0x09f10704,
0xf419f70e,
0x141111fe,
0x0dc60bea,
0xd8f3ef0b,
0xfff3f509,
0x17f7f607,
0xf3f70ce2,
0xf6120d05,
0x0ff70a11,
0x120a10f6,
0x0e070a0f,
0x2101efff,
0x090e09f1,
0xf1fef509,
0x07c4fa13,
0xee03f8f7,
0x10f90016,
0xfd09f416,
0x14f8f7b5,
0xeb0e0606,
0x03e90614,
0x111708fd,
0x04b9f681,
0xb9070cff,
0x03cdf40d,
0x0d0d0707,
0xf3fc02f7,
0xfaff01ff,
0x05f6fff7,
0xf800eef1,
0xffef0f13,
0xdd04fa10,
0x15061710,
0xf8eef00f,
0xffe00396,
0xbd14ef00,
0x03c01407,
0x060f0f0a,
0xf627f7e5,
0x1afff0fb,
0x00f90bf6,
0x1417060f,
0xf53dfaf9,
0x3dfd02f9,
0x17570703,
0x08110af5,
0x0aa6f103,
0xbcf4150a,
0x02bf05ef,
0xf4ef060f,
0x0cf2f8e6,
0xc5f7f407,
0xffbb0a07,
0xf2fcfe16,
0xf062f6ee,
0x2afb0601,
0x0432fc0c,
0xfe17110d,
0xf60afc5c,
0x18000405,
0x0f22fd03,
0xf8fd130c,
0x041602b9,
0xfaff1600,
0xf92114f4,
0xf5f20705,
0xfefd1091,
0x8911f6fb,
0x169a1102,
0x030ef415,
0xf83a0e35,
0x5efeff0d,
0x140cff00,
0x09f80b14,
0x130df924,
0x320d0c09,
0x0332f413,
0x1510f10f,
0x040411f6,
0x00f9f4ff,
0xfdfcf603,
0x0a0109f1,
0xf7e6f9f6,
0x25fbef05,
0x14330d0c,
0xf708f809,
0x15ca1242,
0x0ef4f8f7,
0xf62ef413,
0xef0c16f5,
0xfbf0f73e,
0x22f402f2,
0x0f1ffffa,
0x13fc04f6,
0x09ee15f0,
0xf01513ff,
0x05fd0c12,
0x0605f403,
0xf6f609fa,
0x0bf100f2,
0xfef108fa,
0x050ff9f9,
0xf7de01c2,
0xf0ff0a0d,
0x05fdf6f6,
0xeef403f3,
0x010dfab7,
0xfd05f2fc,
0x02f80afa,
0x07060d11,
0x0c37f4ec,
0x130f0dfd,
0xf3100bf5,
0x10f2fbf2,
0x0013110a,
0x1111eff6,
0xfd1a09f9,
0x061109ef,
0x11e80ac8,
0xf112fbf4,
0x03ecfe06,
0xf80000fa,
0x12140c82,
0xf3effd0b,
0xfff20003,
0x0ffb0501,
0x061cee81,
0xcb06fb0d,
0xf4cf0a01,
0x0fff0403,
0x0af7fe97,
0xe800f200,
0xf4e3f3f9,
0xf40b080c,
0xfff910a7,
0xd91111ef,
0x0bf4090c,
0x0b0d090b,
0xf418f6f9,
0x1104eff3,
0xf9160c00,
0x090ff405,
0xff42f1e4,
0x4312fbef,
0xf028ee07,
0x03090bfe,
0xf85d10cf,
0x26f8f10e,
0x111d07fe,
0x0bfc0af1,
0x054afdf5,
0x32050f0d,
0x070e110a,
0x0704fa11,
0x093a0df9,
0x1ef5f713,
0x050af0f2,
0xf10908fa,
0xfbf3032c,
0xf111f702,
0x05f5fc06,
0x0013f203,
0x032bef41,
0x4b11f9ff,
0xfa46fa0d,
0xef04fbf3,
0x000f0e3d,
0x50ffee0a,
0x055efbf3,
0x0e080901,
0x0214f30e,
0x1e060400,
0x123107f1,
0xf107f6ef,
0xf6ef0dfa,
0x0ef90cfd,
0x081b01f6,
0x1202f609,
0xffe5061e,
0xd8f50bf7,
0x0cdbfdef,
0x0cfaf8f6,
0x0de50446,
0xfef5fdf7,
0xf50402f5,
0x0ffbfff5,
0xf3f70651,
0x250b06fc,
0xf430fe12,
0x05eefdf7,
0xf4f10c3e,
0x2e0904ef,
0xf3240ff3,
0x0bedfbff,
0x01fb05f8,
0xf3ef0a12,
0x00f7f8f9,
0xf7001112,
0x00000400,
0x0bf80700,
0xfa06f70d,
0xf703fa09,
0x0515f614,
0x11090bf6,
0x0af8fd0c,
0x0902f908,
0xef27f6fe,
0x21fc0407,
0xf80f0cee,
0x00f3f5ef,
0xf70900f5,
0x0c0af309,
0xed1f0d06,
0x04fef406,
0xf01409f7,
0xf3f4fe0b,
0xf919ee09,
0x01fbeef1,
0xf4f2fb1a,
0xfaf7f603,
0x090e00fd,
0x03fffd0a,
0x0502f107,
0xf3fdf2ed,
0x070602f6,
0x0107faf7,
0xf701f694,
0xd203f8fc,
0xfed007f8,
0xfff1faf0,
0x020cfbb0,
0xe9f3faf6,
0xf0da08fd,
0xf6f50502,
0x00ebf005,
0xdafef602,
0xf6e70905,
0x04efeff7,
0x04d609fa,
0xcfecf7f7,
0xeee502fc,
0xfe03f700,
0xffe0faf0,
0xc804fcf2,
0xfda8ed0a,
0x07f20a09,
0xf56b0a01,
0x66f702f4,
0xf826f801,
0xf5fc05f0,
0x0942f108,
0x3a090bff,
0xed31f6ef,
0x0604faf0,
0xf6effe00,
0xedeffff1,
0x08d306ef,
0x0b0bf10c,
0xfdf803ae,
0xd8f1ef00,
0x03db07ef,
0xf20100f9,
0x02db023c,
0x02f704f8,
0x09d0ff01,
0x0001fd05,
0xfe120b38,
0x7ffb0a03,
0x0068f90d,
0x03f70cf3,
0x0607f1e3,
0xeafdfe07,
0xf409fbf7,
0xf50af508,
0xf4fcf202,
0xfdfb0bf4,
0xff000308,
0xef0b070b,
0x02f70702,
0x0deffbfd,
0x0101f3f3,
0xf1ef04f3,
0x080bf938,
0x03eff9ef,
0x0c2009f7,
0xff0803f3,
0xeef40416,
0x0aed0c00,
0x081bfaf4,
0xf1f2f6f6,
0xf219f53f,
0x1d020cf7,
0xfd1a0600,
0xfa0300f1,
0xf20a0924,
0x05fafef1,
0xf71afff2,
0xf3fef0f1,
0xfa17f60a,
0x17effe07,
0x0d140cff,
0xfd01f7f0,
0xf0310b15,
0x2ff2f3fd,
0xfd20f2fe,
0x01f80bfe,
0x071803f5,
0x05ef0606,
0xeeedf20d,
0xfdee0dfe,
0x0800f698,
0xeffa1008,
0x02fbfbff,
0xf2fb05fc,
0x0deef2ae,
0xe603f602,
0x0d03fa0c,
0xf3fdef0b,
0x1004fa1e,
0x3701fdf1,
0x04230a01,
0x0f030706,
0x0afdf3ff,
0x1ef209f1,
0x0d17fefb,
0xfef605f6,
0x000f0df0,
0xdef70501,
0xfecd10f1,
0xf00c010a,
0x0a7f03c8,
0x3e040ff6,
0xfa14020a,
0xfc09f40a,
0x03270d91,
0xe3fb0509,
0xed0df3ef,
0x030a03fd,
0xff01f4f7,
0x1206f2fe,
0x011600fa,
0xf900ee0d,
0x03fbf8b7,
0xd30000ff,
0xf8bcfef2,
0xf7faee01,
0x05f605c1,
0xbf010c09,
0x00ae00fb,
0xf1fef80e,
0xfc410d1b,
0x510efdf5,
0xfc42fd0f,
0xf60a0df8,
0xf83ffa20,
0x23fc00f7,
0xfa23f003,
0x0003110f,
0xf4c60bf4,
0xd609f7fa,
0xf2f00406,
0x020ffaf6,
0x00f80b0a,
0xe1fbf809,
0xfed6f408,
0xf2ee0df9,
0xf92f033c,
0x54fafa09,
0xf63c010c,
0x0c0705fd,
0x0603022b,
0x27effc08,
0xfe2603fd,
0xf008f6ff,
0x0eef0039,
0x040c07fa,
0x120a1006,
0x09f404fb,
0xeff4f1d1,
0xcefb08fd,
0xefc6090a,
0xf910f6ff,
0x09e0ff5e,
0xde0606fa,
0x09ea08f5,
0x02fa0b03,
0xf2060853,
0x38ff07fb,
0xfd27faf4,
0x0704f705,
0x0605f521,
0x060202f7,
0x0f1e10fa,
0x03fa10f3,
0x10f2f3f8,
0xe5f4f606,
0x060905fb,
0x0108fe0c,
0x0905fd06,
0x040504fc,
0x05fff4fb,
0xf10105f5,
0xf909fffd,
0xf310fa0d,
0xfbf3f60e,
0xff0bfff2,
0xf81c0e11,
0x0b0a0a0d,
0x0ae0f400,
0xfbf5f111,
0x00340afd,
0x28fb02ff,
0xff150904,
0xfefa0f01,
0x0fef01cf,
0x13130600,
0xfdedf500,
0xf2000b08,
0x0823faf2,
0x0c02f310,
0x0c0c0dfd,
0x03090912,
0xf6fb0941,
0x0101fb12,
0xf4e9f2f9,
0xfe000702,
0xf6e30f7f,
0x4cf41002,
0xf7570411,
0xf40c0e09,
0xf522f83c,
0x4efdfc0b,
0xf757fa08,
0x0e05f410,
0x0e2d000b,
0x21f404fa,
0x063012f1,
0x0a06f90e,
0x110b031e,
0x07f812f7,
0x07140f01,
0x12fe0cf4,
0x11070224,
0x0509f613,
0x0c19f702,
0x0d0af8fa,
0xfcbd0e49,
0xd70cf5fe,
0xf9e501f6,
0x05f60005,
0xf1f7050c,
0x14fa05fe,
0x02fbfdf1,
0xf2f900fa,
0xf1ed1208,
0xe701fd07,
0xf81d100f,
0xf9fef2f8,
0x0005f82c,
0x11f702fa,
0x0d18f3fb,
0xf6fc1007,
0x11e712c4,
0xeef510fd,
0x03f7f100,
0x0d0bf308,
0xf3b9f1ff,
0x9cf70203,
0x07bafe0a,
0x00f107f7,
0x13f70ff8,
0xe90109fa,
0x070007f1,
0xfbf011fb,
0xf9e4f2ec,
0xc70bf704,
0x0be40c06,
0xfef60303,
0x012bf5c7,
0xf3f8fe0a,
0x0f03f801,
0xf308f607,
0x1122fc8c,
0xe60cf100,
0x0ac3f806,
0x0b1110fb,
0xf607f8cc,
0xeb0a110c,
0xf5cbfe01,
0x03030e0e,
0x05f102a2,
0xd503fe00,
0xf0dff2f3,
0xfff9f9f3,
0xf8ecf5d7,
0xdefd07f4,
0xf9d9f1f7,
0xfafc0af1,
0x10f90224,
0x1804fe05,
0x081617f1,
0xfbf518f2,
0x17021928,
0xdff01117,
0x18f111ff,
0x070f0002,
0x18370b30,
0x3af10413,
0x192318f4,
0xfbfaf717,
0x07dd1207,
0x03f104f3,
0x12330b01,
0xfa0407f2,
0x108111e8,
0xc1fb14fe,
0xfdde0619,
0x1604fb16,
0xfe1517f2,
0xf9fafbf9,
0xeefd13f4,
0x17fc0514,
0x00e8fe36,
0xd9061105,
0xf0d2150a,
0xee13f0f4,
0xf3def549,
0x6211f8f6,
0x0a3b0e18,
0x0c04090c,
0x01250ff8,
0xfb011215,
0xf210fafb,
0x0e011802,
0xf9d212bc,
0xac050ff9,
0xff921715,
0x12111112,
0xfeef1014,
0xef0a0610,
0x040b1715,
0x0df01101,
0xf7c70e30,
0xbbf2ff17,
0x0ad30914,
0x09fe07f3,
0x00cef126,
0x0af10bfb,
0xf214fff9,
0xf1f5f1f5,
0x0d3c0807,
0xec0df20c,
0x0ff907f0,
0x11f904f3,
0x0412f2df,
0xdd0304fe,
0xf7f9f70b,
0x0ffc0f0c,
0x0dfb0be2,
0xe9fb07f5,
0x00020e10,
0xff0602fa,
0x0bddf3ee,
0xa008f114,
0xf5c5fc0d,
0xef19fff0,
0x14e612ec,
0x0bf7f2f9,
0x0fe10f07,
0x0c0d0808,
0xf0fafffa,
0xddf61810,
0x00dcfe19,
0x00f6f5fe,
0x0f06132d,
0x14f2f9f1,
0x030f0115,
0xf6030401,
0x0f1b13d7,
0x05f0fd02,
0x0a1809f1,
0xfbf8f6fb,
0xf6fcfdd5,
0xf0f5f60e,
0xf8df070d,
0x0c0403fe,
0x0fc5fbdc,
0xe2fb0e13,
0x09da0d0a,
0xf9ef0118,
0x02f70d0a,
0xe01414f3,
0xfa051705,
0xfef7f1fb,
0xff17f110,
0x1a0b090b,
0x0b1d0afd,
0x10f000f3,
0xf5ef0e2c,
0x1206fe0b,
0x14fd0d09,
0x0d0f08f9,
0x1210f043,
0x18fe02fe,
0x0808f3f5,
0xfceff603,
0x05d7095b,
0x27f60609,
0x1b0af402,
0x01160a0a,
0xf8dbf64c,
0x30f9fb07,
0x0c1613ed,
0xfdf8f3f2,
0x0df71632,
0xe303f4f9,
0x08f41307,
0xf105fe01,
0x01f60218,
0xd9faee09,
0xf3f8f013,
0x0cfbfe02,
0x0cadfc2b,
0xaf05f1f0,
0x12d90d04,
0x02ffffee,
0x0da9126b,
0x24f513ff,
0x063608ed,
0x0bf00b08,
0xf5c4fc75,
0xe0fc01f9,
0xfafaf712,
0x0a07f9f4,
0xf2d9ed45,
0xf4f409ef,
0x12ce04f8,
0xeff0f10c,
0x0be1eeea,
0xe113f7fa,
0x0bdb0704,
0xfb1105fe,
0x12f40609,
0xe3f70b03,
0xeed7f3fd,
0x0c12f2f0,
0xf7afeed6,
0xeeedf616,
0xff06030b,
0x08fdfefd,
0x14a5fbbf,
0x81f11216,
0x129612fe,
0xec13eff6,
0x01cdf3f6,
0x0f0a0a04,
0x0acef103,
0x06f504f9,
0x0b3c02eb,
0x1efeeef9,
0x050603f8,
0x100807fc,
0x0dfbf89e,
0x1205f60a,
0xedfafbf3,
0x02fe0501,
0xfa0aef9a,
0xa8f8150d,
0x0f90020b,
0x0811fdfa,
0xf41ff4e6,
0x13f8ed00,
0xfde803fa,
0x0bfc0af0,
0x1012ee33,
0x41fefdf8,
0x0131030f,
0xf5fefd10,
0x0728ef1b,
0x52f009f9,
0x0a40160d,
0x120b01fc,
0x1026f5a9,
0x3b171707,
0x073afe03,
0x18ef0a0b,
0xfaf0f3c4,
0x0bf61501,
0x141b01f1,
0x0e030400,
0xf9dd0a21,
0x10021615,
0x16041616,
0x00f7eeef,
0xf6190325,
0x17ff0608,
0xf20c170e,
0x0706f707,
0x0df8053d,
0x0d011409,
0xed1312f8,
0x1515f810,
0xee0cfe3f,
0x1012f904,
0xea0d15f3,
0x140909f2,
0x02def80a,
0xd2f4f3f0,
0x010bfef0,
0x0a1403f7,
0xefe7fed2,
0xdb02edef,
0xf7fe0612,
0xecee11ee,
0xee08ebfa,
0xf7fcf8ff,
0xec0d06ef,
0xed0ff609,
0xf4e7f21c,
0xd6fe0bea,
0xfe111504,
0x150b05f2,
0x13af15b3,
0xb5ee1412,
0xefbcf90a,
0xf3eeeced,
0xfde10d86,
0x980feceb,
0x138b16ef,
0x0bf60605,
0x0f2003b6,
0xeb07f00f,
0xfa17f7fd,
0xf6eaf504,
0xfbe2ffd7,
0xc211f2fe,
0x05d21612,
0x03ef0e04,
0xf9f3f1bf,
0xa9ed0207,
0xfbcef10c,
0x01ebf4f4,
0x16e4f3f0,
0xda0700f2,
0x10cb0204,
0x02fcec09,
0xf12e0c11,
0x520ffd09,
0x020efded,
0xef040009,
0x103bf5d7,
0xf2f0ecff,
0x06020100,
0x0d07010a,
0xf016f1df,
0xb710110b,
0xefc5160b,
0xfbec0304,
0xf324fbca,
0xff10eff0,
0x14111507,
0x16f40aef,
0xf3dd0d35,
0xea05f6fd,
0xefe10ef1,
0xedf5ef03,
0x03040d26,
0x61f10feb,
0x031bf30e,
0xee0b0105,
0xf739ef38,
0x12f3f405,
0x0d0c14fa,
0xfef001fc,
0x0131ee3f,
0x28f4f913,
0x01240a12,
0x0613eef3,
0xec1bf3f7,
0x2ff2f7ef,
0x032eed0e,
0x0800edec,
0x04e8f51b,
0xf611f7f2,
0xfe0208ec,
0xf91016ed,
0xf897143b,
0xea0fec10,
0x0521f90b,
0xf2f30f08,
0xfb04ef7f,
0x19f8ff11,
0x0e280f05,
0xfaf31115,
0x03220b51,
0x1314f8f8,
0xfe40f9f4,
0x02f90603,
0xe710130d,
0xfbfe0df1,
0x021c0515,
0x100ded07,
0x0c1b0248,
0x32120209,
0x0b1ceaec,
0x02fe0e0d,
0x0ce10c46,
0x43fcf410,
0x190df3ee,
0xfdfa02f4,
0x03d3fc19,
0x2c05fa19,
0xfa14f015,
0x161206fc,
0xf2ee09d2,
0xe516e5f6,
0xf7dc00ec,
0xf1f503f2,
0x14eef43c,
0x2d08f2f5,
0x0e11f409,
0x09fa11f6,
0x07caeb45,
0xbe00ed0e,
0xeac70410,
0xfef10315,
0x11c4f27f,
0x2d110003,
0x021317ef,
0xf10d09e9,
0xf51e025c,
0x160a0300,
0x091c0614,
0xe8ff1015,
0xf419f426,
0xfce71711,
0xeafa0a0b,
0xfef0eb04,
0xf1dcf2c1,
0xb3f000e7,
0x13e8f7e8,
0x1214f0ed,
0x0abb0f18,
0x9c00fb10,
0xf69403f9,
0xe9f3ea08,
0xe59e0f28,
0xe1fbf7f8,
0xf3ea07ea,
0x15faf4e6,
0xe8bbfb0b,
0xb30df311,
0xf7da180f,
0x030904eb,
0x1606fe07,
0x120d09f2,
0xf2f4f2fb,
0x02f6f902,
0x07230bce,
0x0df7fbe7,
0xfbe01002,
0x13090105,
0x110010a0,
0xf2fffafa,
0xe3cafe07,
0x060ae7ff,
0xfbf80f88,
0xc2fd030e,
0x08a5f5e9,
0x0905ee15,
0xf52705ca,
0x03f9f9f8,
0xecccf7fb,
0x100fe9ee,
0x15270c2b,
0x510a04f5,
0xf040f3f2,
0xed08fb0a,
0xf334ef13,
0x3511f90f,
0xec50edf7,
0xe9140be6,
0xf35614fa,
0x40fb0505,
0xf0270a0d,
0xeb15fcf9,
0xf01a17eb,
0x5e0c05f2,
0xe6450fff,
0xf106120b,
0xe50e051f,
0x4cf7edfd,
0x134515fb,
0xf818f508,
0xfdf51626,
0x21f5eef7,
0xfb230a0e,
0x18e5f5f6,
0xf700f6fb,
0x0b0bfc10,
0x0eec00f4,
0x0c01f4f9,
0x06fff9d1,
0xff020202,
0xf70b0a08,
0x0ff4ff00,
0x09dc0ff3,
0xd9030d0c,
0xf5e30af7,
0x0806f3f5,
0x0db91014,
0xd106f90f,
0xf5d9f6f3,
0xf8f7fb05,
0xfdeaf519,
0xe4fc1009,
0x0103f600,
0x0802f403,
0x0b0e0f13,
0x160c05fd,
0x100efc0a,
0xf908fc08,
0xf625fff7,
0x3afdf8f3,
0x01480f09,
0x090506f7,
0x08fc0ff0,
0xc904feff,
0x01eb0d02,
0xfc0f10fb,
0x00d70ffa,
0xdcfbfbfe,
0x0eccf6f8,
0xf4f4f404,
0x0af40ecd,
0xf4fc0b0c,
0xfee00907,
0x0efff406,
0x0316fc0a,
0x2707fe0e,
0xf70b1010,
0xfafc03f4,
0xff0e07b9,
0x0b0a0dfe,
0x0d1000f4,
0x0efa090a,
0x10a50189,
0x810104f7,
0xfb990506,
0x0ff603fc,
0x05ecfcdb,
0x0c100408,
0x0af30ffc,
0x0f0dfd03,
0xf92f070f,
0x300afa10,
0x1022fafc,
0xf7020df7,
0x02e30642,
0x110e0d05,
0xf4070207,
0xf7f8f710,
0x0a4b0c18,
0x22f90ff5,
0x0c130b10,
0x0a08f408,
0x0e49f9f4,
0x22fc0510,
0x0421f6fb,
0x07fe05f8,
0xf4e90337,
0x0802f710,
0x0dfe0cfb,
0x0e07fbf4,
0x05ef043b,
0x110900f5,
0xfc0bfbf9,
0x0202f611,
0x0fd4fc17,
0xbff405fe,
0xfcd20afa,
0xf80bf80b,
0x09b80c5a,
0xe50a0809,
0x05fefb0f,
0x0c0efdfc,
0x05f30c2d,
0x0c0e01fc,
0xff19f5f4,
0xfefaf902,
0x05ee0af3,
0xe2f7fb08,
0xf4f4f507,
0xf6060404,
0x01021114,
0x0f05f90a,
0x0806f60e,
0x06fe09fb,
0xf90c0bff,
0x00fb0101,
0xfdf9f70b,
0xf50203f3,
0xfe1707f5,
0x05f505fd,
0xfcf2f3fd,
0x02060afd,
0x0b010718,
0x1cf5f606,
0xf70b0103,
0x090d0bfa,
0xfce7050f,
0xecfcfdfa,
0x02f5f7f7,
0xfdfe06f6,
0xfec1fe01,
0xe00a0b0b,
0x02e40cf6,
0xfa08fbf7,
0x0220ff3f,
0x21f50405,
0x0008fcfb,
0x060bfef4,
0x08240d7c,
0x3cf4f4fd,
0xfe4af8f5,
0x03050904,
0xfc06077f,
0x5afdfaf4,
0xfa5af5f4,
0x0407f707,
0xfaf20231,
0x0c0d04f9,
0xfa0af90a,
0x070b04f4,
0x03fdfa00,
0xfa0004f7,
0x0dd8fcfb,
0x0808f8fb,
0xf8f90525,
0x0ef90d07,
0xf91efb09,
0x03070506,
0x09c9fe04,
0xc8fa08fb,
0x08ef010a,
0x07fd06f7,
0xff910ac4,
0xbb090201,
0xf4c70800,
0xf60b07f7,
0xf6d5f401,
0xe50d0a0c,
0xf7f1fdf9,
0xf30af8f7,
0x04000b12,
0x1e0df705,
0x080907fa,
0x070b0608,
0x05e5fcfa,
0xef0df6ff,
0xfef70003,
0xf6f8fdf7,
0x061effe5,
0xf2fcf4f7,
0x06f6f300,
0x010bfbf6,
0x021dfede,
0xed0d0001,
0x08fd0bf8,
0xfb04fa0c,
0x08e60cdd,
0xe403f7f5,
0x02d5060d,
0x07050af4,
0x01010106,
0x1900fa0c,
0xf6fbfa0b,
0xf309020c,
0xf9e702f9,
0xeef5f5f6,
0x08d9f3f4,
0xf9fb030b,
0xf9f60d10,
0x02010303,
0x04fc0905,
0xf9f9fa05,
0xf41b01d5,
0xfafbf7f4,
0x01fbff0a,
0x02fdf809,
0xf305fad7,
0xf5f4070a,
0xf9fb0607,
0x0301fdf9,
0xfef9f6fc,
0x17fe0300,
0x0703f308,
0xfd0bfdf9,
0xf3180019,
0x1117f40b,
0xf6190dff,
0x1102061f,
0x1e0f13f9,
0xde0f0e10,
0x1dd9ff17,
0x0c1c1402,
0xf90406d3,
0x030d1dfc,
0xffe8f4f5,
0x1cf8050f,
0xfc0d16c1,
0xfdf7f900,
0x06110b0c,
0xf5fefbfb,
0xf5aa06d9,
0xd80f0502,
0x12ec0a0e,
0x0bf8fd0a,
0x0c181700,
0x22f1f409,
0xfc1aff1b,
0x0c0019f9,
0x08eef77f,
0xe4f00c05,
0x021200f6,
0xff05190a,
0x1d00f35a,
0x3ef6f714,
0x184a1611,
0xf2091c0a,
0x1150ff12,
0x0bf70ff2,
0x0b470f19,
0x021e120d,
0x08eff8d2,
0xc7061116,
0xf1b0130a,
0x1dfcf31b,
0x05d4f535,
0xf51b010c,
0x15141212,
0x09f51818,
0x1aadfffd,
0x9409f605,
0xf4c7f114,
0xf2fcf80b,
0xfaa505f7,
0xcff70b12,
0xfde4160f,
0x0c0704f2,
0x192f061c,
0x100b1e03,
0x094304ff,
0x0c120016,
0x05e614fd,
0xd20101fb,
0x0be90a1b,
0x0c130b1c,
0x0cb8fec3,
0xba1808f9,
0xfec50418,
0x010e1d14,
0x0dd7f70e,
0x900512f4,
0x02c71b09,
0x0811081b,
0x01fe0a12,
0x12150219,
0x09150d20,
0x03140601,
0xfbd810d6,
0xb006f7f3,
0x05d415f8,
0x1411f819,
0x00ea03ee,
0xc6f7081d,
0xf2bc0d0f,
0x02021d1e,
0x061e1bad,
0xbe001a04,
0xfcc61e17,
0x1ef10dfe,
0x1cdafa2b,
0xe6fe0ff3,
0x18e41df9,
0xfcf90516,
0x050afcec,
0xf314031e,
0x11181120,
0x19f90401,
0x11f51cab,
0xdbf109f4,
0xfcd11f0a,
0x13030ef4,
0x0e040ae7,
0xcd1d1c06,
0xfcd0101a,
0xff18f40b,
0x0427f122,
0x1817180c,
0x0d23fc1b,
0x14151a1a,
0xf32cfb67,
0x2dfa1112,
0x0a23f71c,
0x181218fe,
0x08011313,
0x060816f0,
0xf5daf113,
0x121a0403,
0x11f4f4a8,
0xc7fdf409,
0xfce11002,
0xf207fcf5,
0xf5ebf1b8,
0x1efcf20b,
0xfe03fcf2,
0x0b0c0001,
0xf503f759,
0x171a1a12,
0xf62d05fd,
0x14f30712,
0x0ac0095e,
0xd5efee06,
0xf2dbfb12,
0x1a0b0f12,
0x08d1fa75,
0xfcf0090b,
0xf2e4180d,
0xfa03160f,
0xf25def36,
0x6908f402,
0x144df107,
0xfbf006ff,
0xfc220bf1,
0xe2f51504,
0x150e011b,
0x02f0f502,
0x18f407c6,
0xf30a1308,
0x06010efd,
0x01f4f116,
0x15cbfd0c,
0x941704fc,
0xfeab0803,
0x11170302,
0xef86121a,
0xb40f0702,
0x00c507f9,
0x1713f5fd,
0x1c12f711,
0x26fe00fa,
0xfa35f8f7,
0x0b1804ff,
0xf50c04ff,
0xd70d1a08,
0xeef8fef5,
0xf81811f4,
0xf6fc05ed,
0x000efefe,
0xed00f906,
0x040010f1,
0x109ffee7,
0x81fe11f8,
0x0c95f700,
0xfff916f1,
0x17f00436,
0xeefb09fe,
0xf6cb0314,
0x09f4faf7,
0x0eff0244,
0xfb121704,
0x040a0809,
0xf2effe06,
0x0e08131f,
0xe2f11516,
0x0c02061b,
0xf1eeedf6,
0xf226028f,
0x0d0eeefd,
0xfd25f018,
0x16fb0703,
0x0bd013b7,
0xbefe0e1b,
0x13be0d13,
0xfd1c1301,
0x0bc810cd,
0xfa07f3f3,
0xf8eaff09,
0xfe00130f,
0xfcfef9c1,
0xc7f711ee,
0x0ceb02fe,
0x08161714,
0xefdd03e9,
0xe8f10a16,
0x14d9faf2,
0xeef6fe03,
0xffe9fce5,
0xfb02f3e8,
0x0fe61202,
0xf0f70ee9,
0x1019fecb,
0x01fa12f6,
0xf1e5f8f8,
0xf9f4e8fd,
0xf05aeada,
0x15fa070c,
0x0af9f202,
0x10f3fdfa,
0x10700ad9,
0x3dfbf0ea,
0xeffdf7fb,
0xe80b06ef,
0xf61a10d3,
0x0b0e14ee,
0xeef70904,
0x09f512f3,
0x102114d7,
0x180213fd,
0x09e8fef0,
0x0500ee0b,
0xeb47ec20,
0x3f080c08,
0xef27f8f3,
0x0bff0bf6,
0x102dec22,
0x6a1001ed,
0xf3450e05,
0xeeeb0702,
0x0220f8f3,
0x4a00fc09,
0x1639f601,
0x09f0fb09,
0x0842fb03,
0x4d0fe903,
0x023f0def,
0x0a10fbec,
0x0519073b,
0x31f2f5ee,
0xf025fd0e,
0xf00a040c,
0xfc1c0c1f,
0x43e9fcf5,
0x1249ec0b,
0x0cefefff,
0x091b0639,
0x030f13f1,
0x0813f0f3,
0xea11130d,
0x0627fe38,
0x68f80905,
0x0e64f2f7,
0x0bf1ee00,
0x04f8e816,
0xf0f0edef,
0xfe1ef0f0,
0xf10bec0e,
0x0cd31020,
0xe3eb0de9,
0x10e60906,
0xeee81212,
0xeee4f01f,
0xfa0aee0b,
0x0e1ef7ff,
0xebff0304,
0xf7af014b,
0xf501fb0d,
0xfe08f509,
0xf4ecf80b,
0xf3cc13e1,
0x12eaf5f2,
0xf51dfff2,
0x1306f7ea,
0x13d00b91,
0x940d0aec,
0xe9b3fb06,
0x0a02ece9,
0x05ffe8c1,
0xcc110402,
0x0dc50611,
0xf6f8f102,
0xef1cf9e6,
0xee0f0d0b,
0x08c710fa,
0x12ff13e9,
0x0a300cd1,
0xf6fff9f1,
0xead70602,
0x110bf10e,
0x03170681,
0xf5f3f80c,
0xe7ea0bee,
0xfb090d11,
0xf403ff9e,
0xd5ee1008,
0xead6f1ed,
0x0712f1fa,
0x1012fcea,
0xf4f803f1,
0xfc03f911,
0xfffbff06,
0xf40df300,
0xf20a0ffd,
0x0a020f01,
0xf600f1f3,
0x0b1d00fc,
0x11030bf4,
0x0806f806,
0xf7f8f8ff,
0xfc0706f5,
0x08f905fa,
0xf601020b,
0xfbf80b0a,
0x0cdcfbee,
0xe1040603,
0xf3d510f6,
0xf407fb00,
0x10290d13,
0x2bf504fa,
0x061c000c,
0xf6110901,
0xf31f085d,
0x38080cfd,
0x092203f2,
0x10f402f7,
0x0aff107f,
0x580e09fc,
0xf74bfffd,
0xf6f4ff11,
0xf5170b45,
0x11ff0a01,
0x02300ff4,
0xf90c010c,
0x002711dd,
0x10f1fc02,
0x10090403,
0x0602f70f,
0x0f00f93b,
0x170df809,
0xfb3311f3,
0x07100603,
0x0cef04fe,
0x050b010b,
0x111bff00,
0x020c07fa,
0xf3aff3f8,
0xbf10fd07,
0x02def4f7,
0x03f0faff,
0xfae2f516,
0xf510f1fc,
0xfb0cfbfb,
0xfa05f302,
0x04100c17,
0x09f10b02,
0xf42105f2,
0x0509f800,
0xfce2ff1b,
0xe1f5ff09,
0xf6fe0c0d,
0xfe04f8f9,
0xf2170be6,
0x0408f504,
0xfd16f211,
0xf4f2fdfb,
0x0cf5faec,
0xd2fcfe0f,
0x05f3040a,
0xfe040af0,
0xf1d604e7,
0xf7fb0f03,
0xfee60a08,
0xf40e07fa,
0x09e40ee1,
0xecf4fff0,
0xf6e9fa00,
0xfa01f60c,
0x0feef4fd,
0xcaf7fb09,
0x02dc0507,
0x110af8fd,
0xfdfc0df6,
0xf611f6fe,
0x01db05f2,
0x040103f8,
0x012d03d3,
0x1b0cf6f2,
0xf2ebf5f1,
0x0cf70806,
0x0619fda9,
0xf501f1fd,
0xfcf4f503,
0x0cf8f30d,
0xf7f0ffcb,
0xf300fe0e,
0x08e40afd,
0x10fbf900,
0xfc2d1418,
0x1af9fc03,
0x1215f910,
0x140dfe11,
0xff3e0538,
0x3011f50b,
0xf90e0503,
0xf9020204,
0x0bdf0013,
0xd2fef9fa,
0x03e70a12,
0x1112f40c,
0xfbac040c,
0xaa060310,
0x05b30103,
0x0afe0200,
0xf616fc29,
0x10050008,
0xfb13f4f7,
0x1302fb13,
0x10e7ff46,
0x0ef402f9,
0x070e09fd,
0x03f5f4fa,
0xfcdc02fb,
0xf0040dfb,
0x10f5f709,
0x00fd10f4,
0x01f805dd,
0xbc0ffdf5,
0xf6d2f5f9,
0x0d0b0b09,
0x0ef20002,
0xfafbf7f3,
0x0504fc0e,
0x1208010d,
0xfdb8f650,
0xd5120bff,
0xfde50e12,
0x08fdfd10,
0x11db13ef,
0xe50101fe,
0xfbf108fe,
0x02ff0f0a,
0xf5e61141,
0xb0070c0f,
0xf2d7fc00,
0xf6f603f7,
0x0fcd0333,
0x15f90f14,
0xfaf107fd,
0xf70b0601,
0xfb120fda,
0xf5f80cf5,
0xf4210f01,
0x110cfe12,
0x0afa12d1,
0xd3f70bf3,
0xf8d4f814,
0x06070413,
0xf814f4dd,
0x02010702,
0x0c040a0f,
0x130a0ef3,
0x0299f7dc,
0x8af6fafb,
0xfc8109fc,
0xfc150907,
0xfdd4fa00,
0xf4fbf403,
0x01b902f5,
0x0b060606,
0x03040e2f,
0x0cfe1309,
0xfa13f407,
0x08fd040f,
0x08240f28,
0x12f514fc,
0xf62c0af6,
0x0d11010e,
0x0a33f7ca,
0x13f7110f,
0xf82cfb02,
0x0c1202f3,
0x0ee4ffc7,
0xbff311f4,
0xfaccf5f5,
0xfa0ef70a,
0xfec51013,
0xeef4f7f7,
0x05f3fe04,
0x0402f7fd,
0x02ff0d18,
0x03ff070b,
0x130ffbf6,
0xfbf713fd,
0x01f20017,
0xf0fd0103,
0xfc0b0c14,
0xf8fa0d08,
0x0af70af8,
0x04fe1302,
0x0c021af7,
0x01001314,
0x13f8f7dc,
0xe3121213,
0x15050a10,
0x0b0703f5,
0xfdd513ae,
0x900a1018,
0x17dbf704,
0x120d1909,
0x06eb05c7,
0xd60d0a18,
0x0fe30f03,
0xf71408f5,
0xfd061508,
0xfd09f8f7,
0x0b26f6fb,
0x0cf40c03,
0x01f40fc5,
0xdefb080a,
0xf4ff1505,
0x070d0efb,
0x01fe1987,
0xd819090b,
0x08edfd09,
0x0d131300,
0x031109a4,
0x950c060b,
0xf8a9f512,
0x0f1a010e,
0xfa2e08b6,
0xe5fb1917,
0xf6e20212,
0xfffbff07,
0x12060cb0,
0xe0180c04,
0x09d7f912,
0xfa030efb,
0x102bfad8,
0x270107fd,
0x0d00f301,
0x1b0bfdf8,
0xfc3109c7,
0x2a000ffe,
0xf921f70f,
0x0507061a,
0xfded01c0,
0xaef9fa1a,
0x12da0d0a,
0xf9fe1018,
0xf605f405,
0x15f408fe,
0x06f4fb04,
0x16160a03,
0xfd55f6fd,
0x1e160100,
0xfd0615ff,
0x0001fd04,
0x12d3f73e,
0xfefe020f,
0xfc1c06fc,
0x01030401,
0xfe4a041f,
0x1dfd1bfd,
0x1b360100,
0xfc10090a,
0x07390d1f,
0x090d0b14,
0x0925140b,
0x0614fcfa,
0x19f3023a,
0x070c0213,
0x04f508f4,
0xf6151a0a,
0xf4cb142b,
0xecf41313,
0x01f8f80c,
0xf707100a,
0x19d41305,
0xb913fef4,
0x13e30815,
0xf9070e05,
0x1acd145d,
0xdcfff80e,
0xfffc12fe,
0xf7080113,
0x10ec047f,
0xf70f0e02,
0x03260e01,
0xf8f41108,
0x17e4051a,
0xd11a0afc,
0x17fa0812,
0xfc13f419,
0x04f8fde7,
0xe4fc130b,
0x19e11800,
0xf7f8ff13,
0x1106fbf9,
0x10f61af7,
0xfb0e1d1c,
0xf6f614f4,
0x01d4fccc,
0xf0fa121d,
0xf9f8fd10,
0x1df31506,
0x0bd51aae,
0xb4191b04,
0x06f5fa0d,
0x10151801,
0xf8c814f6,
0xcdf613f5,
0x19fd17f5,
0x120ff4fc,
0x02e80848,
0xdef8fefe,
0x0122faf6,
0x0c09fcf7,
0x05e512c7,
0xe01c12fe,
0xf5fd1e1e,
0x16f7f801,
0x0d0b0d89,
0xea17f91d,
0xf702f814,
0x18f7f41c,
0xfa0a0f85,
0xacfefd0f,
0x13d31017,
0x0d17fefc,
0x09f40196,
0x8df31d0c,
0xfdabf3f9,
0xf9190404,
0x07acfcd6,
0x93f6faf8,
0x05a30406,
0x15f918f5,
0x1e1f11f4,
0x0bffff12,
0x05ff0bff,
0x071b190d,
0x0f0808fe,
0x0d030a18,
0x090cf91e,
0x010617f9,
0x12181cf9,
0xe9110700,
0x1112f81c,
0x111d1900,
0x042f0ff6,
0x03f61bf7,
0x0ef3031e,
0x05fb12fc,
0xfc08fded,
0xed0d1c18,
0xf2e51610,
0x0a1bfdf4,
0x04f40e0d,
0x0b161a1c,
0x001b19fb,
0x1116120a,
0x040b142d,
0xdc16fef6,
0x0ee21809,
0x070a0411,
0xfa0f0637,
0x37ff0a1d,
0x02361017,
0x1e1300fc,
0xfbe50e19,
0x030d0d19,
0xf5050802,
0x011c100a,
0x13f7f707,
0xf9fe000e,
0x0cf01311,
0x14030e1e,
0x05ec07e6,
0xc7fe0206,
0xf3e60afb,
0x10101717,
0x0ad6f743,
0xde051efd,
0xf6f0160f,
0x12f80712,
0xf5a70a7f,
0xe00c1001,
0x03151119,
0x1afd1d1b,
0x18ebfd18,
0xba0bf90d,
0x1af80816,
0x14f61cf9,
0x15091c08,
0xe019fbf9,
0x1d04f8f7,
0xf4061c15,
0xfd130adf,
0xe50ef0f0,
0xf7ddfaef,
0x00f2030d,
0xf725fcfe,
0xfffcf608,
0xec070ffa,
0xef140112,
0xed04f000,
0x41061108,
0x11190efe,
0x0f10f70f,
0xecc40963,
0xdc0907f8,
0x10f9f5fb,
0xf6f3fc0b,
0x01cbfe61,
0xbf14f4ed,
0xf4bc0e14,
0x05f014fe,
0xf01bee3c,
0x0b0315f6,
0xf8020108,
0x0601fd03,
0x0060fe5b,
0x50150104,
0x0c32eeff,
0xebffe9f5,
0x045d0afa,
0x6a040e07,
0xf1710ff8,
0xf215eb05,
0x13ce0e17,
0xb5130a0c,
0x0cb9fc12,
0x09f4e9ee,
0x0aa0f97f,
0xe2f005ee,
0xfe9f130d,
0x0be8fbf6,
0x0fcc0258,
0xf2fef8f7,
0xf5fa0ef6,
0xf7110609,
0xffa2f75f,
0xcbf60ce9,
0x0fb609f8,
0x060e0bec,
0xf547fd26,
0x7d00fc0f,
0x107e1502,
0xf7f2000f,
0x0e2106e3,
0xfe15f4f6,
0x100ff3ec,
0x1209ef08,
0x139102da,
0xdaf6e903,
0xe7ba040f,
0xeef113e9,
0xea1615c9,
0xcb0b10fc,
0xe7dd130d,
0x06f00102,
0x08c4ec2b,
0xcb08fc0c,
0xfe99f602,
0x050513f3,
0xf4ccf005,
0x27f50df4,
0x010810fb,
0xf9fe04f8,
0x0d3af1b5,
0x1cf50bfa,
0xfb0f0d15,
0xe9ee12fb,
0xf535ffcb,
0x02e8f9ea,
0x0728f102,
0xeef511f8,
0x070d07f6,
0x0c030afa,
0x122bfeea,
0xfffc0802,
0x00f101c0,
0xf5feec12,
0xf6ee11f5,
0xf4fe1507,
0xf903f3a0,
0xf9f407f9,
0x0ded050f,
0xf8fa15ec,
0x0729fedd,
0x370ef513,
0x1609e9fd,
0xfaf20411,
0xf31104ec,
0x09f40d0d,
0x0b0706ee,
0x1300040b,
0xf40c0404,
0x01101012,
0x0cf203f6,
0x06fb0210,
0x090c0bcd,
0x26f1fd05,
0x0e0c100b,
0x03f01006,
0x03c011cb,
0x9bff0af0,
0x03e604f5,
0x0af406f8,
0x06c6f0ea,
0xb7090e01,
0x06acf10b,
0xf8120c07,
0x0207f6f2,
0x20f20b09,
0xf7fb0300,
0x12f3f201,
0x0904f02e,
0x0d12f40b,
0xf620fd0b,
0x06130ef0,
0x031a0311,
0x30f1f209,
0xf53bfcfc,
0x0f0d0e0d,
0xf116090d,
0xb8f8ff06,
0xfac50510,
0xff0afa10,
0x0e0b103b,
0x20f5f0f4,
0xf8e80d07,
0xfffc010e,
0x0b2b0e03,
0x3d061100,
0x022ff40b,
0x1003f6f7,
0x03f30ad6,
0x0ff10501,
0x04070a12,
0x000bfd0a,
0xfcd503ae,
0xfd0cf708,
0x1106ff05,
0x0b100e10,
0x069507ad,
0x81f6fff1,
0x0db2f300,
0x04060a04,
0x0fabf1f5,
0xe0071103,
0xffe0f7fa,
0xfcf8fbf5,
0x0a26fd2b,
0x331100fc,
0xff1e0f03,
0xfff60805,
0x0af30e26,
0xe60c100f,
0x01f603fb,
0x0a1012f6,
0xf55606c7,
0x0210f5fa,
0xf0121005,
0xfd0007fd,
0xff3308bb,
0xcef708fc,
0x02f7f004,
0x090b03f3,
0x08d3f60f,
0xeafbf009,
0xf5defcf3,
0xf2ff0b00,
0x03c60c2a,
0x08f9f3f6,
0x0ef90008,
0x11f0f3fb,
0x00d90a31,
0xd2fcf9f2,
0xf6d0050a,
0xf90cf70d,
0x00f70674,
0x18f0fbfd,
0xf917fe0c,
0x020b0a02,
0x102f0936,
0x2a0afd0a,
0x0b3e00fe,
0x09f70c04,
0xf00b04f3,
0xf004f712,
0x10f1f208,
0xfaf20dfa,
0x11ed11ea,
0xeb06000d,
0x08d71111,
0x0df60101,
0xf4e6f9e4,
0xf1110b12,
0x06eb0b11,
0xf2fbf30f,
0x12fffa8f,
0xed000907,
0x0cf5f5fc,
0xf8fdf602,
0x05cbf3d8,
0xe0f5f9f1,
0xf517120f,
0xf1f4f3f5,
0xfef40f30,
0xe20d0101,
0x0ef103fb,
0x040b0005,
0x08180061,
0x140bfdfb,
0xfa1000f0,
0xf403f5fb,
0x1014f3fb,
0xf5f9fa02,
0xfce80702,
0x12f10607,
0x0b47faf8,
0x37fff30e,
0x0548040c,
0x0a0504f4,
0x094cf4be,
0xee00f1f4,
0x03030ff1,
0x0ffc060e,
0xf8b300f6,
0xa8ff10fe,
0x0dac00f8,
0xf10af3f2,
0x11ea0131,
0x00fbfd02,
0xfce60ef9,
0x0dfb0f0e,
0x0ce7fc31,
0x13020510,
0x12270801,
0xf5f3faf4,
0x10e20f02,
0x09f20600,
0x101a0208,
0x0df201f5,
0x0e28f8c2,
0x14f200fe,
0xfe1f1010,
0xf3ff0af2,
0xf9db04fb,
0xe4f2f5ff,
0x07eefc05,
0x07f41004,
0x0fc91212,
0x1b0b0b04,
0x10fef100,
0x0efff8fc,
0xffe909f6,
0xe9030b07,
0x12d7f410,
0x050c10fe,
0xf2330b15,
0x33050310,
0xf90f12f8,
0x100c1005,
0x0c3e09f8,
0x1cfb0bf1,
0x014f0b12,
0xf8f1f711,
0x0ed9f1c7,
0xb5f0ff08,
0xf7e6f2f3,
0x11f6ff03,
0x12dd01d9,
0xf3fe0f0c,
0x00d4fd0f,
0x040b02fe,
0x0ccbf24d,
0xc80505ff,
0xf8c90d04,
0xf3fef50c,
0xf4f9127f,
0x4e0ff801,
0x013010fe,
0x0f12f305,
0xfd43fb08,
0x110b13f5,
0xf631fefa,
0xfe0607fa,
0x0029f3f2,
0x05070b07,
0x00fefcf4,
0xf71209f5,
0x0d12fbf9,
0x0df606fa,
0x0d1300fe,
0x0a04f8f9,
0x1308f90c,
0x230b1015,
0xf712111b,
0x0c131901,
0x1c0a080d,
0xf31d0e0f,
0x0ef4fbff,
0x1df90aff,
0x0cca14fd,
0xec121a0e,
0x15ecfc07,
0x00120d18,
0x0ab7ff04,
0xaf14fd14,
0x07d80312,
0x01171405,
0x19dd1d3f,
0xf20b1b19,
0x13061afc,
0x09140617,
0x0df51d19,
0x05001219,
0xf8071217,
0xf90803ff,
0xfcca0825,
0xc4030d04,
0x0e061c10,
0xf71a1b0c,
0xfae81a2b,
0xfe1a1510,
0x05290617,
0x0817f805,
0x05f50b1a,
0xd80e1603,
0x171c121e,
0x1e050608,
0x1dbefd24,
0xbe050d15,
0xfacef814,
0xfefb161b,
0x1a00060d,
0xf712161c,
0x1afa1d0c,
0x19fc0811,
0x13da0f48,
0xc600011a,
0xf6e80914,
0xf907001e,
0x1da91642,
0xd70c1904,
0x0ffefd19,
0xf8060211,
0x1df10bee,
0xcf05030f,
0x18fafd11,
0x02fa101b,
0x01fbf9d7,
0xc51814f9,
0x1ce70e12,
0x1c0e0819,
0x0501faf9,
0xe6081916,
0xfb13f802,
0x0614fe18,
0x18c106d1,
0x81fc1718,
0xff990800,
0x14fb19fd,
0x13c502f7,
0xb90c0d0f,
0xf898030a,
0x080fff15,
0x09d50f08,
0xd4fb09fa,
0x01d6161d,
0x0b1a1d13,
0x19e2160e,
0xe41b0012,
0x07effa00,
0x0d091b18,
0x0933fab9,
0xff011108,
0x1bf9fe14,
0x03160e14,
0x0aee0cbd,
0xdf1e0218,
0x0ecc0e0b,
0x110d111c,
0x1acb0508,
0xe51117fd,
0x01f80104,
0x03061517,
0x050311c7,
0xcb17170d,
0xfac0ff15,
0xfe001afa,
0x00ff15f5,
0xfb00131c,
0xfee51b0b,
0x1b091117,
0xf603faff,
0xe2fc04f5,
0xebeb04f8,
0xfee1f907,
0xe812e903,
0x15efebf2,
0x0217f1ed,
0xfef2f3f4,
0xf72ef806,
0x24fcf705,
0xea2ff505,
0x060006e5,
0x082de30e,
0x31f3f1ee,
0x0543eef9,
0xeef8ec05,
0xf3e4e8f5,
0xedeafcf1,
0xf211f1f4,
0xf4070300,
0x0716ebf8,
0x010bfbf3,
0xe30ae808,
0xe902f509,
0x090c0bdc,
0x2507fff6,
0xf709f4f5,
0xfbf00201,
0xf620f8bf,
0x10fcebe4,
0x07eef3f2,
0xe9ffe8ed,
0xe30d00e8,
0xe8ea08f6,
0x03d10408,
0xe2ec02fd,
0x050cfed7,
0xf8ef04fc,
0xebeeea07,
0xeafcf3f6,
0xeafef015,
0x13f303fc,
0xf108f2ec,
0xed000aeb,
0xf415f9f4,
0x0ae3e509,
0xefeaf6ec,
0x0af2e6f6,
0xea7fe5f5,
0x78e6f6f2,
0xfc570a06,
0xee03e503,
0xe702ee09,
0x1de2020a,
0xfdf4f8e6,
0x00e6e6f7,
0xf603e70e,
0x4ee3faff,
0xf42ff4f5,
0xf10bf9f3,
0x00f8e1f1,
0xd3090bfd,
0xe8d302f4,
0x0107f9f7,
0xe42be21c,
0x610be5f4,
0xfd3be4e5,
0xf0ef0407,
0xf220f1d9,
0x12f3ecec,
0x002a05e9,
0xe3ebedf0,
0xe628fabb,
0x40f401f8,
0xfb2b0008,
0xeaea08f7,
0x0118eaf9,
0x39e3f3e8,
0xeb21e7e0,
0xec08fbf3,
0x0adff94a,
0x0d0af8fb,
0xfafd05e4,
0xe3fee3ff,
0xef20f443,
0x7ef7f7ee,
0x003efaf7,
0xe700f700,
0x0575e52a,
0x69f1e3eb,
0xef5001fa,
0x03fdffeb,
0xec280259,
0x4cfbf0f3,
0xf6690806,
0x090201fc,
0xe6f6f2f9,
0xeeece4f6,
0x07f4f2ed,
0xf8f0faf8,
0x1c0ff913,
0x1b13ff04,
0x1e33fc20,
0x00fafffe,
0x0adbf70a,
0xd61621fc,
0x160c1efe,
0x1e1123f7,
0xfabd22e5,
0xa30e0afc,
0x05f3110c,
0x0012051b,
0x10c10a0d,
0xa6061ffb,
0x13ec02fc,
0x18fd1604,
0xf9fdfb5c,
0xf90cff18,
0xf9f91f24,
0x1621fe09,
0x0dcb1ad6,
0xd410fe22,
0x09f50a22,
0x00fc20f6,
0x16d7fb99,
0xa5fff7f7,
0xfcd2171b,
0x061c13fc,
0x210f0da9,
0xad041d1a,
0x19d61002,
0x070c0b0e,
0x06f002b4,
0xbb011b1e,
0x17dcf7fe,
0x1ff7fd0d,
0x0e8f0005,
0x8f000e17,
0x1e97fd00,
0x000619fc,
0x0c0619f6,
0xe511fafd,
0x0fe70d11,
0xfe0ffd10,
0x21fffe20,
0x0920020d,
0x06291509,
0x0f06f8f8,
0x0704fc18,
0xfb13090f,
0xfc19ff13,
0x12170ff9,
0x1a1df9e2,
0xe11ffc1f,
0x15f8fe10,
0xf71105f8,
0x0c0c01be,
0xc623f91c,
0x0fba0dfa,
0x1e10f512,
0x0bfefe2d,
0x0e16161f,
0x1b041b23,
0x20031afa,
0x20c5152b,
0xaa110b15,
0x21b0f9fc,
0x1323051b,
0x01021d2d,
0x0e1bfc0d,
0x0bea0209,
0x06221e05,
0x10020253,
0x05f91b19,
0xf91cfb13,
0x1d100b0a,
0x0ef0ff3f,
0xfe041ef9,
0x05eb090f,
0x00220f0a,
0x1e0919c9,
0xe7f70e22,
0x1e181e09,
0x0d05fb21,
0x02c007ec,
0xb523171f,
0x19e3fefb,
0x031af8ff,
0x1d81155b,
0xe208001b,
0x23fe1900,
0x0c1ffd1e,
0xfcbd1508,
0xa5080c01,
0x0dbc0dff,
0x1701fffa,
0x00e00805,
0xd4ff0b0d,
0x11d91619,
0x12232119,
0x07fd0a18,
0x0ff705f8,
0xfc0ffa03,
0x0bfbf8fa,
0x0bf7f115,
0x0af00d04,
0x1009fef4,
0xf9f00d02,
0xf3efedf2,
0xf4fc08ef,
0xf602f5fb,
0xf7ff030f,
0x03d2eeee,
0xde04f1ed,
0xf9f00306,
0xf3f70403,
0x0c020e2f,
0xebedec05,
0x05ff0504,
0xf0f2fded,
0xffdffcf2,
0xf80ef2f8,
0xfafcfdff,
0x0aeef610,
0x01e80981,
0xd007f50a,
0xfdd7fc07,
0xf60908ef,
0xf532fc93,
0xd306f206,
0xf1bc01fa,
0xf6ef0a03,
0xf30bfaf1,
0xee080c04,
0xf1ddfcf5,
0x010bf8f8,
0xf5db0d1b,
0xfaf30cf0,
0x0fca0afc,
0xf70cfa0a,
0x03fcf2ea,
0xeaf30d09,
0xeff70ff6,
0xf0ee01fd,
0xee29f624,
0x380f0c0c,
0xf91a0100,
0x040ff608,
0x0137ee42,
0x46f3f410,
0x0f48ed08,
0xf80af0fa,
0xee21f600,
0xfef9fc02,
0x05f60109,
0x0101f80c,
0x003f0dd4,
0x34f6f902,
0xef210bfe,
0x04fc0309,
0x0c000e0a,
0xfef0fdf9,
0x04f91008,
0x06f0030e,
0xf8def7f3,
0xfbfff7f1,
0xf4e5fbed,
0x0e040a00,
0xf5e8f2c5,
0xd5ff04f9,
0x0eb50a04,
0x08fefb0e,
0xf349f516,
0x76f702f9,
0xf630f8ee,
0xff060a08,
0x0629f739,
0x3102ff08,
0x055cf2f2,
0xfcf4f90f,
0x0c0a0016,
0x12f6f9ec,
0x1021f9f2,
0xfd020700,
0xef2409e9,
0x260e01f8,
0x0018ee03,
0xef0f0bfa,
0xf11cf050,
0x59edf508,
0xfe3df509,
0x0df3f7f6,
0xf6f40366,
0x380ffd03,
0xf04e020b,
0xfe0607fb,
0x08cef0ea,
0xccfa0903,
0xefe3f3ed,
0xfef201f1,
0x07d707d5,
0xdd0bfbfd,
0x0de4090b,
0x020ff30e,
0x02d1ffc8,
0xda0805f3,
0xf0d5eef0,
0x0e06fff2,
0x030d0f0f,
0x3f0905fb,
0xf9320603,
0x01f2f10c,
0xfe3a0258,
0x50f1fb08,
0xf6340af4,
0x0eefef06,
0xfd020c49,
0x09020af6,
0xf5d8f30a,
0x09f60cee,
0xee1200c8,
0xe50cf1fd,
0x0ae3ed02,
0xfa0f01fd,
0xed0e0a19,
0xfafc0ff9,
0x02e9ff05,
0xf7070bf7,
0x0107f60b,
0x49ed08ff,
0x053dfa0d,
0x00f50d0e,
0x0da8f215,
0xeef3fffb,
0xf107f5fa,
0x0dff08f8,
0xee02ff49,
0x1ef4010c,
0x0efaefff,
0x020405f8,
0x03e4f922,
0x09f20f00,
0xf90002ef,
0x0c0d010d,
0x04f0f83d,
0x1cef090e,
0xfc1f0e0c,
0x0e0400fc,
0x0c4af142,
0x70f70709,
0xfd7f08f5,
0x02fa0efd,
0xfbcef417,
0xb6f8fff7,
0xefe407f8,
0xef080e05,
0x0cb3f4ef,
0xf00b00f4,
0xf8f90af7,
0x08f2020f,
0xf10b06f2,
0xf60604f6,
0x05dfee02,
0xf8fef102,
0xee1bf2f7,
0x18f1f4f2,
0xf511050f,
0xff0bfef7,
0xeec5fec0,
0xd2f7fafa,
0xfdd00fff,
0xeefe0ff2,
0x0013fb8e,
0xd2f8f502,
0x07e40a08,
0xf7f3f10a,
0x060602ac,
0xf80905f6,
0xeed9edfd,
0x06f9ed08,
0x0a0eed39,
0x23f5fd01,
0xfa190a0c,
0x09f70407,
0xf551f6d1,
0x44f60601,
0xee4206f3,
0xf90bfcfa,
0x0558f9ba,
0x16060409,
0xf9e2faf3,
0xf3f60f07,
0x0e0ff3fa,
0x0df9f8ee,
0xf6f70bfb,
0x0e02f4ed,
0x070f0fe1,
0xfa020e08,
0xf3fb0df9,
0xfffafb01,
0xebec05f9,
0xf605faec,
0x13ebfef0,
0x0908f900,
0x0f12f6f7,
0x02eaeff9,
0xf8f0f2f7,
0x12ea11f1,
0xf758fe0a,
0x0a03e913,
0x06e212f0,
0xe90ff80d,
0x1154f9e1,
0x22ea0612,
0xfbf60dea,
0xe7f60c06,
0xf72807a6,
0x1709e806,
0x0721f6e9,
0x0411f4ee,
0x110208f0,
0x0ff7f50c,
0xf1f5f3ef,
0x04fdf7ea,
0xf12c07ea,
0x41f6f9fe,
0x0928eb01,
0xecef0610,
0xfbbff12f,
0x09ea0910,
0xeaf1f40e,
0x1405090b,
0xe810f7ef,
0x3113f7e7,
0xf22afe0b,
0xfcf1fafe,
0xe852fdb9,
0x2f090ef3,
0x0f541213,
0xf7131200,
0xea2d0e25,
0x30f001ed,
0x10220a08,
0xe8f30b00,
0xff3cfcf3,
0x55eb0206,
0xfe4e0a11,
0xe8f6f0f4,
0xf51407fd,
0xbe0df7f4,
0xfaba0f09,
0xf40cf7ef,
0xe7470a1c,
0x73f00808,
0x153af7e9,
0xe808f3fd,
0x0428ff07,
0xeff10a07,
0x04190fee,
0x0e03f311,
0x07e4f136,
0x1cf909ef,
0xf226020e,
0xfbfefd01,
0xfecff108,
0x0503ecf1,
0xfc1af1f7,
0xfaece7ec,
0x10c60a7f,
0x0907ffee,
0x0b0d1206,
0x06f3ec05,
0xfed9fc55,
0x28f5fffe,
0x061f10f5,
0x03f111ed,
0xe704e9d8,
0xddf8eb08,
0xefcff6e6,
0x0100f80b,
0xfc040cdf,
0xfae70df5,
0xe9f2ffea,
0x12ec09ed,
0x0bed069f,
0xcbf9ee10,
0x09b9f3f6,
0x06f60a05,
0xf8c80f04,
0xd80e09f7,
0xf4a9100d,
0xeef905f3,
0xf4e70fb9,
0xf5ef04fc,
0xe8f30eec,
0x0d13f6f8,
0x0a1fece3,
0x13fc0c01,
0x0a110f0f,
0xf407f500,
0xf20fe60b,
0x0807f0f0,
0xf3f709e6,
0xfcfbf5f3,
0xea1dfb52,
0x1402ebf3,
0x0cf9e7fd,
0xfe0209f2,
0xe957f633,
0x64f80908,
0x0939f7f6,
0xf4040ae6,
0xf551e8d6,
0x660708f6,
0xf0460af4,
0x06edf201,
0x0bdb0ab9,
0xf9f9eeec,
0xece8e6f7,
0xeff200ed,
0xff240d22,
0x06f2f002,
0xf821f6ef,
0xfde9fc0b,
0xebde0157,
0xc7ffedef,
0xf3b50806,
0xfd030beb,
0xf0e1ed39,
0x43e80ce8,
0x092a0c09,
0xf0f805fd,
0xf7660d26,
0x53f7f0ee,
0xfd6002e6,
0x0afc01f9,
0xfe360dee,
0x0aee09fe,
0x0316ebee,
0xe6f1f002,
0xfee109f9,
0xe2eaf404,
0xeff50207,
0x08f9edf3,
0xf8d101fc,
0x9300e7f8,
0xff8105f1,
0xf5fcf3fc,
0xf72bf338,
0x5e08f701,
0xe92ef6e8,
0xe6ecefe9,
0xec2be637,
0xfdff0d05,
0x0b31f101,
0x0d00edfd,
0xffe3f10c,
0xf2f7eefc,
0xe9e506ff,
0x0405f004,
0xf5f5f0b2,
0xc4feeae5,
0x04bef9f4,
0x0bfcee08,
0xf0e50405,
0x0eed06ea,
0xfadc04eb,
0xedfced04,
0xe9fd01de,
0x18e6040d,
0x002507f3,
0xe9eef802,
0xed2af2b1,
0xe4060503,
0x07f50806,
0xf7fdfaf6,
0xfb0af2ce,
0xffef0005,
0x01f9fdfc,
0xf5feed03,
0xf62efc0c,
0x3bfbf50b,
0x03fff8e6,
0xede908f7,
0xee41fbec,
0x500cf1fa,
0x072ff8fe,
0xf600fdf0,
0xf85b05d5,
0x2deb000b,
0xec0ee9eb,
0x050401ec,
0xfc17ea03,
0x49f6f3f2,
0xef29f608,
0xe7f9e7f7,
0xfa07f912,
0xfafaf9f6,
0xf907edef,
0xf8f90406,
0xf42bf817,
0x06100304,
0x1b09131b,
0x07f20918,
0x1a220353,
0x01180719,
0x030b02ef,
0x17f0020e,
0xfbee0b09,
0xd0f2f31c,
0x07ce0f07,
0x0f0b1217,
0x00f002cf,
0xb611fd0f,
0x03c01310,
0x08f6effb,
0x1d3206e9,
0x28060205,
0xee2706f4,
0x021b0813,
0x1de21637,
0xea0df1f6,
0xee2d1105,
0x1c0e04f1,
0xf9e00f10,
0xf6f7ef0f,
0xfcf318ef,
0x1af3f90b,
0x060a04d7,
0xd2fd100b,
0x05a2f115,
0xef170df6,
0x154bfaf4,
0x110cf2f9,
0xf3111612,
0x05f1f507,
0x14f2f73a,
0xf3121c00,
0xff1d1a0f,
0xfc040e03,
0x04f80ac9,
0xb9f1fd02,
0xefd3f300,
0xfeff06fd,
0x0ecb1624,
0x92fbfd08,
0xf2b014fb,
0xfe0a0e12,
0xf30cf323,
0x4cfdf71a,
0xf5130f13,
0x1803080c,
0x1d310018,
0x0b0a131a,
0xf44deffa,
0x0d1aef0b,
0xf1c2fd00,
0xb4f41014,
0x06ab0a06,
0x0cf9f610,
0xfd1e07bf,
0xd3f809ee,
0x13ef0306,
0x17f6100e,
0x10a1ef4a,
0x940df0f5,
0x1281070c,
0x05fff313,
0x06ea007e,
0x7d1608fd,
0x17600b08,
0xef1c03f5,
0xfcc81519,
0xb5fffd0d,
0x10fdf319,
0x0e100ef3,
0xf4ec0337,
0xfafbf310,
0x09e6ee19,
0x0415fbf5,
0xf01215b2,
0x231af2fe,
0x0a0e0718,
0x17fd1818,
0xf2da042c,
0xd30a1317,
0xf0cb1708,
0x0cf9f509,
0x08e4fffe,
0xf01c1b0c,
0xffe50a1a,
0x0311f50e,
0xf606f3c5,
0xb801f903,
0xf8d0fbfc,
0xf8090c0f,
0x0fdf0313,
0xf6f904f4,
0xfcf2000e,
0xf10102ff,
0x02d208e4,
0xf0f10cf8,
0x0be90911,
0xf0f8f8f3,
0x07e3f3c7,
0xe0f2f0f3,
0x10ec0903,
0x080b02ff,
0x0df007f3,
0xf004faf2,
0x0f12f90d,
0x08ff070f,
0xff090717,
0xf405090e,
0x09fdfc05,
0x04f60510,
0x0c16f225,
0x0ffa0b06,
0xf60fef03,
0x06fafbf7,
0xf5e4fadc,
0xe10f03ff,
0xfbe70cf2,
0x10ffff08,
0xf31003c0,
0x0df60b0c,
0x090b0cfd,
0x01effe00,
0x10fef699,
0xaef0f1f1,
0x05d00d07,
0xf9010407,
0xfec106c7,
0xb110effa,
0xfbbd03f9,
0x0f04f60a,
0xfaeaf8ee,
0xf10710f1,
0xf6ee110f,
0xfefcf9ef,
0xfcfd1210,
0x0af8f3ff,
0x09040f04,
0xfff60401,
0xf90405ce,
0x21fa0109,
0x070cfc10,
0xfcf2050a,
0x054a059e,
0x1ef2f40d,
0x09f9f5f3,
0x0300f10a,
0x00ff00f6,
0xf9f10b10,
0xfae1f70e,
0x0a00fb10,
0x04f20003,
0xecf204f3,
0x04e50204,
0x0bf7f70c,
0xf20b11fc,
0x15f208f6,
0x080b0df4,
0xf5000cf3,
0xf5500f2b,
0x48021210,
0xfb340011,
0x0d0f00f5,
0x1031fa17,
0x4e05fe0c,
0x0b61f004,
0xf40ffbf4,
0x12f407e9,
0xd1f0fb0c,
0x09f5fc10,
0xfd0400f5,
0x00010aee,
0x01fa060a,
0xf8d6fcfd,
0xf3120c0a,
0x07db063a,
0xebf409f1,
0xf7ef1201,
0xfff50ef5,
0xf5e00b7f,
0x2bf7ff00,
0xfe40f7f7,
0x09f3ff0b,
0x12fe0327,
0xf110020d,
0x10220ef4,
0xf4f5f0f5,
0x0c0af337,
0x090cf4f7,
0x0512f3f9,
0x0c0411f3,
0x0d14072b,
0x17f8f500,
0xf93cf7fa,
0xf80206f5,
0xebfcedd0,
0xf700fceb,
0xfbef0f04,
0x020906ec,
0xee010eba,
0xf9fd00f7,
0x0813fdf7,
0x0910fcfd,
0xff0105d5,
0xeaea00ed,
0x0f0bee07,
0x0afa090a,
0x0d090c12,
0x0fef07f8,
0xfe030ef2,
0xf2f40b01,
0x08fa12fc,
0x10f5fb10,
0x030c10f5,
0xf201fbf3,
0x100ceef7,
0xff0bef07,
0x03fc11fd,
0x06ee040b,
0x094ffaf6,
0x580e0e00,
0x0f28f9f5,
0x1312f8f8,
0xef460d12,
0x2311ecfa,
0xf10a1307,
0xf60bf310,
0xffeffd30,
0x0af2fbfc,
0xf3fe08fb,
0x10fd0e13,
0x0e3ced12,
0x42fc0513,
0x0a3408fb,
0xeefbf4ed,
0x01faf125,
0x26ffff0f,
0xf42bf8f7,
0x04edfc0b,
0xeb05ebdd,
0x300bf613,
0x062b03ec,
0xf109100f,
0xedfc0cf5,
0xe8ef00eb,
0x00010812,
0x060f110a,
0x12d50a2c,
0x0ef6f6ec,
0xfef3fa05,
0x03fd03f1,
0x09050a2c,
0x3b110dfd,
0x1433f8f5,
0x0301f211,
0xf6eeff18,
0xeefff50b,
0x13eaf80d,
0xf2031107,
0x043ffefe,
0x3cea11f8,
0xf4641006,
0x07eb030e,
0x05fc0fd8,
0xc202fbf3,
0x0817fdf2,
0x14f6040d,
0x06c5f3e2,
0x08eb11f9,
0xf811060d,
0xef04ecfc,
0x10e7f900,
0xf7f80bee,
0xf2fd13f5,
0x01060014,
0xf7c3f147,
0xb70ceaf2,
0xebbcfb0c,
0xf10bfcff,
0x0c2c0952,
0x34051210,
0x101bf6f1,
0x040600fe,
0xee7ff7dc,
0x1efff7f7,
0xfd06050a,
0xfffe110f,
0xed1f0bcb,
0x00ebf1f1,
0xf4f5f212,
0x14091312,
0x0dd90ceb,
0xfc0a01ee,
0xf6cb06fc,
0x01f108fb,
0xf3ff0a01,
0x00fa0710,
0xfcf41100,
0x03fcf50d,
0xfee7fe02,
0xe80c07fd,
0x08fbf0fd,
0xf4fa0312,
0xfceff406,
0xf7f004fb,
0xffe1f9ff,
0xf0f407fe,
0x0e16f50b,
0x21f0fdf5,
0x0f1a0f03,
0x051200f0,
0x08da0cea,
0xed0efffe,
0x04f3f50e,
0x08030700,
0xf9fa04dc,
0xdff4f6f8,
0x07f60d0f,
0xf8f1ff0e,
0x0ae00ede,
0xdffefcf1,
0x08f80d05,
0x100b0ffd,
0xfdb2fc6b,
0xfaf303fd,
0xf825f304,
0xfbf9f209,
0xf0ce053d,
0x15f7fd11,
0xf716f2fa,
0x0105f8f7,
0xfe3311cc,
0x09050dfb,
0xf51afd12,
0x130afff9,
0xf121f2e3,
0x240dfa03,
0xf5ee0a07,
0xfe08f2fe,
0xfa57f2d1,
0x56fe0e11,
0xff4efd01,
0x0ef6f4fd,
0xf7a9fdd0,
0x81fbf502,
0xff98f601,
0xf00408fb,
0x10c3fde3,
0xc700f10b,
0x02b20fef,
0xf70d0af7,
0xf238fafc,
0x30faf4f1,
0x15330400,
0xfcf70710,
0xf60ffb69,
0x3902f109,
0xfb20faf6,
0x0cf5fff2,
0x0e57fae2,
0x38fb0009,
0x1154fb04,
0xf20011ff,
0xfa070ad0,
0xb4041108,
0x02cd0e02,
0x10f4ff0c,
0x0d1bf842,
0x2c0a0c06,
0xfefff60f,
0xf905fb00,
0x03edf212,
0x000f01f2,
0x14040203,
0xf4f50e08,
0xf5f3fc05,
0x0dfc0611,
0x1108f90a,
0xf1f6fcf5,
0x04e7fac0,
0x0503fef7,
0xf802f9fd,
0x0d04faf4,
0x0ac3f2fc,
0xdc0cf605,
0x04f6f2fa,
0xf4f90608,
0xfee211fa,
0x0002f305,
0x10ee1005,
0xf1120601,
0x0d07f414,
0x27f10605,
0xf316f2f5,
0x0df9f30a,
0xef10d825,
0x19fbd7ff,
0x08fff3fe,
0x01f7efda,
0xea32dc36,
0x470af2e2,
0xe50bf0ff,
0xe5f1dd01,
0xd844d84a,
0x29dcf3eb,
0xea23d9d3,
0xedf40004,
0xf534fcde,
0x380806fb,
0xf513ede7,
0xf7f0e6d6,
0xf10b03b8,
0x01ebe1fc,
0xe1e7d5e1,
0xdffddc05,
0xeb02ed32,
0x08f8f5f6,
0x0bf3f6ff,
0xd9ffd901,
0xebecf145,
0x19f0f900,
0xfae906ee,
0xdbd5f9dd,
0xe5d3ec58,
0x39f9ddfe,
0xea0ad8f7,
0xe808f1f1,
0x0208ed37,
0x5805ebde,
0x0b4eedf6,
0xebf6fbed,
0xdc7fe3ee,
0x50fffef7,
0xfa5ce1d5,
0xf2dbe100,
0xd9f9edd0,
0xe7fc00e9,
0x01cbd401,
0xfde4ecf3,
0xf70aefa3,
0x1ff8050a,
0x01d90901,
0x03d909fd,
0x05f4eecf,
0x0ddd07dd,
0xe2cde2f4,
0x09fbdf05,
0xe5aadefa,
0x0cd5f209,
0xfecbfaf5,
0xf1f4e802,
0xf40df236,
0x4fd7e101,
0xff0adbd6,
0xe4e9ecd6,
0xfe0dd514,
0x1408e6eb,
0xe5efe005,
0x02db07da,
0xde4608d8,
0x5febfbdb,
0xe46ae2fc,
0xe0f402d8,
0xfa21ebd4,
0xe8ddd6d9,
0xe50ef001,
0xf7f2dee9,
0xd727e2fe,
0x5ae2dafb,
0xdd1605e2,
0xdefbd5ec,
0x0626ee1e,
0x6c01fed8,
0xef3cde09,
0x07e5f805,
0x09f3f74a,
0x2b03d9fe,
0x081d01dd,
0x02e5ddfe,
0xee3ddcd8,
0x5bdce6df,
0xed31dcfc,
0xdcf3f4d9,
0xfc4ef7aa,
0x3ee907fd,
0xe412e701,
0xf5ed01ff,
0x0025f74d,
0x69f2fd06,
0xde3901d4,
0xe0e5e5e1,
0xdaf7022a,
0x2205fbf4,
0x0422e806,
0xe1ec04e9,
0x02e41b07,
0xf4101619,
0xf92318fb,
0xfb021819,
0x09ebfeef,
0xeb06130f,
0x170afb13,
0xf80014f5,
0x10f710d4,
0xd6ff040e,
0x1cf51416,
0x0a09fa12,
0x0e0601e7,
0xe2f8feff,
0x1a0e1810,
0x171a171a,
0x02e6192d,
0xecfaf517,
0x0f1d0b11,
0xfc08fe0d,
0xfde018cd,
0xdb020615,
0x07e904f9,
0x0bfa0bfd,
0x13db128f,
0xc612081d,
0xfac90518,
0xfa1205f7,
0x17041581,
0xa9061705,
0xffb415fc,
0x0b1a1bf6,
0xf61f07c1,
0xbdfe12f8,
0xf5d01515,
0xfe180a0d,
0x0ee4fbb1,
0xc01a0d09,
0x06b61a0d,
0xf5f702f4,
0x072213d8,
0xfe1a120a,
0x0af1fbf9,
0xfdf70c0e,
0x191afdcb,
0xe41802f8,
0x14fb120c,
0xf81bfefc,
0x0b3810d0,
0x14f91817,
0x0d0f1bfd,
0x061007f9,
0x0c3518e5,
0xcd160efc,
0x0e01f712,
0x0d18fb1c,
0xf6250a04,
0x01fd0612,
0xf5e511fc,
0x08150807,
0xfae20e08,
0xfaff060b,
0x19ee0a00,
0xf702f8ff,
0x01321339,
0x1df70407,
0x0a1df9fb,
0x1b07170d,
0x1026100d,
0x430a1c15,
0x0654f60f,
0x050a1d14,
0x13f3031a,
0xec14f515,
0x14ef0fff,
0xfc02f5fe,
0x0ee8fa40,
0x0d180609,
0x0df3041d,
0x10070e0f,
0xf7fe1813,
0xf8111d18,
0x0ae80713,
0xf80913f5,
0xf8f50364,
0x06f81bf7,
0x0420fb01,
0x17f9fefd,
0xfdc8f973,
0x160219f7,
0x161ffd19,
0x0a00f801,
0xf5f70a4a,
0xdf0d1b15,
0x09091310,
0x06010dfd,
0xf60d071c,
0xff171003,
0x09ff0e09,
0xff070ef5,
0x0ce4011e,
0xfc01f608,
0xfa0ef105,
